{"<s>":0,"<pad>":1,"</s>":2,"<unk>":3,"<mask>":4,"!":5,"\"":6,"#":7,"$":8,"%":9,"&":10,"'":11,"(":12,")":13,"*":14,"+":15,",":16,"-":17,".":18,"/":19,"0":20,"1":21,"2":22,"3":23,"4":24,"5":25,"6":26,"7":27,"8":28,"9":29,":":30,";":31,"<":32,"=":33,">":34,"?":35,"@":36,"A":37,"B":38,"C":39,"D":40,"E":41,"F":42,"G":43,"H":44,"I":45,"J":46,"K":47,"L":48,"M":49,"N":50,"O":51,"P":52,"Q":53,"R":54,"S":55,"T":56,"U":57,"V":58,"W":59,"X":60,"Y":61,"Z":62,"[":63,"\\":64,"]":65,"^":66,"_":67,"`":68,"a":69,"b":70,"c":71,"d":72,"e":73,"f":74,"g":75,"h":76,"i":77,"j":78,"k":79,"l":80,"m":81,"n":82,"o":83,"p":84,"q":85,"r":86,"s":87,"t":88,"u":89,"v":90,"w":91,"x":92,"y":93,"z":94,"{":95,"|":96,"}":97,"~":98,"¡":99,"¢":100,"£":101,"¤":102,"¥":103,"¦":104,"§":105,"¨":106,"©":107,"ª":108,"«":109,"¬":110,"®":111,"¯":112,"°":113,"±":114,"²":115,"³":116,"´":117,"µ":118,"¶":119,"·":120,"¸":121,"¹":122,"º":123,"»":124,"¼":125,"½":126,"¾":127,"¿":128,"À":129,"Á":130,"Â":131,"Ã":132,"Ä":133,"Å":134,"Æ":135,"Ç":136,"È":137,"É":138,"Ê":139,"Ë":140,"Ì":141,"Í":142,"Î":143,"Ï":144,"Ð":145,"Ñ":146,"Ò":147,"Ó":148,"Ô":149,"Õ":150,"Ö":151,"×":152,"Ø":153,"Ù":154,"Ú":155,"Û":156,"Ü":157,"Ý":158,"Þ":159,"ß":160,"à":161,"á":162,"â":163,"ã":164,"ä":165,"å":166,"æ":167,"ç":168,"è":169,"é":170,"ê":171,"ë":172,"ì":173,"í":174,"î":175,"ï":176,"ð":177,"ñ":178,"ò":179,"ó":180,"ô":181,"õ":182,"ö":183,"÷":184,"ø":185,"ù":186,"ú":187,"û":188,"ü":189,"ý":190,"þ":191,"ÿ":192,"Ā":193,"ā":194,"Ă":195,"ă":196,"Ą":197,"ą":198,"Ć":199,"ć":200,"Ĉ":201,"ĉ":202,"Ċ":203,"ċ":204,"Č":205,"č":206,"Ď":207,"ď":208,"Đ":209,"đ":210,"Ē":211,"ē":212,"Ĕ":213,"ĕ":214,"Ė":215,"ė":216,"Ę":217,"ę":218,"Ě":219,"ě":220,"Ĝ":221,"ĝ":222,"Ğ":223,"ğ":224,"Ġ":225,"ġ":226,"Ģ":227,"ģ":228,"Ĥ":229,"ĥ":230,"Ħ":231,"ħ":232,"Ĩ":233,"ĩ":234,"Ī":235,"ī":236,"Ĭ":237,"ĭ":238,"Į":239,"į":240,"İ":241,"ı":242,"Ĳ":243,"ĳ":244,"Ĵ":245,"ĵ":246,"Ķ":247,"ķ":248,"ĸ":249,"Ĺ":250,"ĺ":251,"Ļ":252,"ļ":253,"Ľ":254,"ľ":255,"Ŀ":256,"ŀ":257,"Ł":258,"ł":259,"Ń":260,"Ġt":261,"he":262,"Ġa":263,"in":264,"Ġthe":265,"er":266,"on":267,"Ġ,":268,"re":269,"Ġs":270,"ed":271,"Ġw":272,"Ġo":273,"nd":274,"at":275,"Ġ.":276,"or":277,"it":278,"Ġc":279,"en":280,"Ġf":281,"es":282,"is":283,"ar":284,"Ġof":285,"an":286,"Ġb":287,"Ġin":288,"al":289,"ing":290,"Ġp":291,"as":292,"Ġand":293,"Ġto":294,"ro":295,"ic":296,"Ġm":297,"Ġd":298,"Ġh":299,"ion":300,"ĠĊ":301,"ou":302,"le":303,"ĠT":304,"Ġre":305,"Ġ=":306,"ĠA":307,"ĠS":308,"il":309,"ent":310,"Ġ\"":311,"Ġth":312,"Ġ1":313,"st":314,"ĠC":315,"Ġl":316,"el":317,"om":318,"am":319,"Ġe":320,"Ġn":321,"Ġ@":322,"ad":323,"ac":324,"ĠM":325,"Ġwas":326,"ur":327,"ĠThe":328,"ec":329,"Ġon":330,"ly":331,"ĠB":332,"ĠI":333,"et":334,"Ġ'":335,"ol":336,"Ġg":337,"id":338,"iv":339,"im":340,"Ġfor":341,"ir":342,"ig":343,"-@":344,"Ġ@-@":345,"ter":346,"ot":347,"ĠH":348,"Ġas":349,"us":350,"ow":351,"ut":352,"Ġst":353,"Ġ2":354,"ay":355,"ith":356,"ĠP":357,"ation":358,"ver":359,"Ġbe":360,"Ġwith":361,"Ġhe":362,"Ġthat":363,"ĠR":364,"em":365,"th":366,"ĠD":367,"un":368,"ce":369,"ĠF":370,"Ġis":371,"ul":372,"Ġwh":373,"Ġby":374,"ch":375,"Ġ)":376,"Ġ(":377,"Ġal":378,"Ġcon":379,"ĠN":380,"ĠW":381,"ra":382,"Ġat":383,"ĠL":384,"os":385,"ĠG":386,"ers":387,"ct":388,"Ġ19":389,"Ġit":390,"rom":391,"and":392,"ĠJ":393,"Ġan":394,"her":395,"est":396,"um":397,"00":398,"ag":399,"ist":400,"ain":401,"av":402,"ri":403,"od":404,"ĠE":405,"ĠO":406,"Ġfrom":407,"Ġcom":408,"Ġhis":409,"op":410,"res":411,"if":412,"ere":413,"ort":414,"Ġpro":415,"ies":416,"Ġv":417,"ill":418,"Ġde":419,"pp":420,"ore":421,"ld":422,"Ġr":423,"Ġwere":424,"Ġsu":425,"ĠIn":426,"Ġse":427,"ong":428,"igh":429,"ew":430,"ate":431,"all":432,"ak":433,"ard":434,"ich":435,"art":436,"ber":437,"ant":438,"Ġor":439,"ity":440,"ud":441,"oc":442,"ated":443,"ab":444,"ĠK":445,"Ġch":446,"gh":447,"Ġex":448,"qu":449,"pt":450,"Ġpl":451,"rou":452,"ess":453,"ear":454,"ĠU":455,"ame":456,"ive":457,"Ġâ":458,"ack":459,"Ġsh":460,"Ġk":461,"Ġare":462,"ect":463,"Ġhad":464,"ĠâĢ":465,"ian":466,"ĠSt":467,"se":468,"Ġwhich":469,"ast":470,"red":471,"ge":472,"our":473,"ov":474,"ip":475,"ment":476,"Ġsp":477,"Ġnot":478,"Ġy":479,"Ġle":480,"ial":481,"ine":482,"rit":483,"ost":484,"ap":485,"ust":486,"ight":487,"ell":488,"ĠCh":489,"ord":490,"Ġ3":491,"Ġu":492,"oun":493,"ia":494,"ical":495,"ther":496,"ish":497,"ary":498,"ave":499,"og":500,"Ġun":501,"cl":502,"Ġ200":503,"irst":504,"ĠV":505,"ous":506,"ions":507,"Ġ;":508,"Ġar":509,"Ġint":510,"ru":511,"ide":512,"so":513,"Ġcomp":514,"fter":515,"Ġbut":516,"Ġtheir":517,"Ġcont":518,"cc":519,"ure":520,"out":521,"ould":522,"Ġits":523,"Ġwhe":524,"Ġfirst":525,"wo":526,"Ġ20":527,"per":528,"ff":529,"hed":530,"ĠâĢĵ":531,"own":532,"ass":533,"ign":534,"Ġalso":535,"ue":536,"ry":537,"orm":538,"Ġcl":539,"ok":540,"ub":541,"ĠHe":542,"ie":543,"ater":544,"ran":545,"ome":546,"Ġres":547,"ire":548,"Ġ:":549,"ond":550,"ork":551,"end":552,"Ġad":553,"Ġab":554,"mer":555,"Ġus":556,"Ġ4":557,"age":558,"Ġher":559,"Ġro":560,"Ġhave":561,"Ġ5":562,"low":563,"Ġone":564,"Ġper":565,"Ġrec":566,"Ġbeen":567,"Ġhas":568,"Ġtwo":569,".@":570,"Ġ@.@":571,"ime":572,"ĠTh":573,"ree":574,"uring":575,"du":576,"ally":577,"ence":578,"pl":579,"Ġ18":580,"ile":581,"ult":582,"Ġsc":583,"land":584,"ough":585,"ition":586,"iz":587,"Ġag":588,"Ġwho":589,"Ġthis":590,"ach":591,"ations":592,"Ġdis":593,"ĠAl":594,"ric":595,"Ġbec":596,"ĠIt":597,"Ġapp":598,"Ġj":599,"Ġpart":600,"ount":601,"are":602,"Ġdes":603,"clud":604,"act":605,"ely":606,"ade":607,"ory":608,"Ġ201":609,"Ġthey":610,"Ġover":611,"Ġplay":612,"over":613,"ib":614,"Ġman":615,"ound":616,"Ġafter":617,"Ġyear":618,"ens":619,",@":620,"Ġ@,@":621,"ik":622,"Ġoff":623,"Ġser":624,"Ġatt":625,"Ġim":626,"ction":627,"Ġother":628,"ĠY":629,"urn":630,"ph":631,"ember":632,"ace":633,"Ġinclud":634,"ance":635,"ress":636,"ite":637,"Ġout":638,"ice":639,"te":640,"Ġen":641,"ark":642,"ang":643,"man":644,"ey":645,"round":646,"wn":647,"Ġinto":648,"rough":649,"Ġup":650,"Ġpre":651,"nder":652,"Ġev":653,"ren":654,"Ġ6":655,"Ġtime":656,"int":657,"we":658,"ĠOn":659,"ced":660,"port":661,"Ġcomm":662,"ward":663,"ind":664,"ces":665,"amp":666,"Ġte":667,"ied":668,"ĠUn":669,"Ġwould":670,"vel":671,"ose":672,"Ġ7":673,"Ġwe":674,"Ġmore":675,"tern":676,"ited":677,"Ġall":678,"ents":679,"ĠAn":680,"les":681,"Ġhim":682,"ason":683,"Ġne":684,"able":685,"iss":686,"rib":687,"ors":688,"ings":689,"oy":690,"ased":691,"Ġshe":692,"aw":693,"ates":694,"rop":695,"ood":696,"att":697,"Ġcent":698,"ase":699,"one":700,"Ġwork":701,"Ġpo":702,"ral":703,"ious":704,"old":705,"orth":706,"ix":707,"ict":708,"gan":709,"Ġ9":710,"ild":711,"Ġrem":712,"inal":713,"Ġsec":714,"ep":715,"ail":716,"Ġfe":717,"form":718,"Ġear":719,"Ġduring":720,"ath":721,"Ġbet":722,"Ġthem":723,"ered":724,"Ġwhen":725,"Ġcons":726,"Ġ8":727,"ilm":728,"outh":729,"ved":730,"ron":731,"Ġkn":732,"ĠAs":733,"aus":734,"fer":735,"Ġmost":736,"ubl":737,"Ġdec":738,"ft":739,"ick":740,"Ġonly":741,"Ġsong":742,"way":743,"Ġagain":744,"ake":745,"ĠSe":746,"ollow":747,"Ġnew":748,"ug":749,"ĠMar":750,"ters":751,"ĠCom":752,"oth":753,"Ġ199":754,"reat":755,"ween":756,"ational":757,"ons":758,"ĠAr":759,"hip":760,"Ġthree":761,"Ġtr":762,"Ġunder":763,"Ġgame":764,"ook":765,"ision":766,"Ġabout":767,"ock":768,"Ġfl":769,"Ġrel":770,"ob":771,"olog":772,"Ġcol":773,"Ġ00":774,"als":775,"Ġthan":776,"Ġseason":777,"Ġpos":778,"Ġbetween":779,"ve":780,"Ġfilm":781,"Ġthrough":782,"meric":783,"fore":784,"Ġend":785,"Ġcan":786,"ĠAmeric":787,"Ġme":788,"Ġnum":789,"orn":790,"ĠEn":791,"ĠNew":792,"iew":793,"Ġlater":794,"Ġdef":795,"Ġret":796,"Ġass":797,"ted":798,"Ġwhile":799,"ular":800,"ans":801,"Ġchar":802,"Ġact":803,"Ġsub":804,"hn":805,"Ġver":806,"Ġrecord":807,"ts":808,"Ġprodu":809,"Ġra":810,"Ġpe":811,"Ġpr":812,"Ġreg":813,"Ġwhere":814,"Ġmade":815,"ames":816,"orld":817,"Ġform":818,"ating":819,"Ġbu":820,"Ġac":821,"Ġlar":822,"Ġmov":823,"Ġrele":824,"Ġinter":825,"ener":826,"ever":827,"hes":828,"ury":829,"ished":830,"ines":831,"Ġsome":832,"Ġfollow":833,"Ġso":834,"Ġwrit":835,"ros":836,"Ġqu":837,"Ġco":838,"Ġday":839,"Ġspec":840,"Ġinc":841,"ĠAt":842,"Ġfour":843,"Ġam":844,"ived":845,"ĠLe":846,"ual":847,"Ġsecond":848,"Ġacc":849,"ĠRe":850,"Ġ000":851,"Ġused":852,"ins":853,"lect":854,"Ġind":855,"ning":856,"ike":857,"Ġbefore":858,"ank":859,"bum":860,"aid":861,"iel":862,"Ġsupp":863,"ific":864,"Ġsuch":865,"Ġmon":866,"rans":867,"Ġmus":868,"Ġ0":869,"ĠThis":870,"ll":871,"ics":872,"Ġ10":873,"ily":874,"Ġ12":875,"hen":876,"Ġhigh":877,"iver":878,"ĠSh":879,"Ġcall":880,"ĠBrit":881,"Ġbeing":882,"Ġthere":883,"any":884,"Ġpubl":885,"aj":886,"io":887,"Ġent":888,"ars":889,"ĠSc":890,"owever":891,"ĠJo":892,"Ġsy":893,"Ġsur":894,"Ġdo":895,"ĠAust":896,"Ġyears":897,"Ġnumber":898,"Ġfound":899,"Ġep":900,"Ġloc":901,"Ġalbum":902,"Ġtra":903,"Ġsever":904,"velop":905,"Ġagainst":906,"Ġno":907,"ton":908,"ek":909,"Ġset":910,"ĠâĢĶ":911,"Ġinv":912,"ife":913,"ince":914,"ised":915,"other":916,"Ġbl":917,"ject":918,"uc":919,"ier":920,"ĠZ":921,"ement":922,"Ġem":923,"ten":924,"ird":925,"ĠEng":926,"Ġ/":927,"Ġboth":928,"ities":929,"Ġpres":930,"Ġincluding":931,"Ġback":932,"Ġseries":933,"ained":934,"ause":935,"Ġthen":936,"Ġbecame":937,"its":938,"ane":939,"irect":940,"Ġwell":941,"yl":942,"pr":943,"ode":944,"ram":945,"ise":946,"Ġknown":947,"urch":948,"Ġtrans":949,"Ġperform":950,"Ġteam":951,"Ġadd":952,"ident":953,"ale":954,"son":955,"Ġexp":956,"Ġ16":957,"ĠUnited":958,"Ġdep":959,"ures":960,"ann":961,"az":962,"Ġ198":963,"ert":964,"Ġepis":965,"ined":966,"Ġmain":967,"row":968,"ful":969,"Ġpop":970,"Ġrece":971,"ield":972,"Ġ194":973,"Ġmet":974,"though":975,"Ġ15":976,"overn":977,"ower":978,"Ġsing":979,"iet":980,"uch":981,"Ġ11":982,"Ġmany":983,"air":984,"ross":985,"ĠAfter":986,"Ġcharac":987,"Ġlong":988,"ĠInd":989,"Ġseveral":990,"Ġdesc":991,"ather":992,"ober":993,"Ġrep":994,"Ġcontin":995,"Ġest":996,"Ġ17":997,"Ġdevelop":998,"Ġop":999,"ool":1000,"ĠAustral":1001,"ĠAmerican":1002,"Ġmill":1003,"up":1004,"ivers":1005,"Ġgo":1006,"ute":1007,"Ġsm":1008,"ern":1009,"elf":1010,"Ġorig":1011,"led":1012,"Ġcity":1013,"Ġbegan":1014,"ative":1015,"ared":1016,"Ġshow":1017,"Ġstud":1018,"ĠGer":1019,"Ġmin":1020,"au":1021,"Ġcre":1022,"une":1023,"emb":1024,"der":1025,"roup":1026,"ĠWar":1027,"ĠShe":1028,"ĠBritish":1029,"Ġalong":1030,"ah":1031,"ĠMay":1032,"ven":1033,"Ġpol":1034,"Ġhead":1035,"Ġcomple":1036,"apt":1037,"Ġ197":1038,"Ġcentury":1039,"ĠJohn":1040,"ued":1041,"Ġdid":1042,"Ġlead":1043,"erm":1044,"Ġsign":1045,"Ġ196":1046,"ired":1047,"Ġmil":1048,"Ġdirect":1049,"Ġship":1050,"til":1051,"Ġart":1052,"ually":1053,"Ġcould":1054,"ized":1055,"Ġob":1056,"Ġext":1057,"Ġdown":1058,"iam":1059,"Ġearly":1060,"ley":1061,"Ġhist":1062,"view":1063,"Ġnear":1064,"Ġcar":1065,"Ġbel":1066,"Ġdif":1067,"Ġwar":1068,"Ġoper":1069,"ĠCon":1070,"Ġinf":1071,"ient":1072,"Ġbro":1073,"ĠWh":1074,"ĠUS":1075,"Ġthese":1076,"els":1077,"Ġmat":1078,"Ġcalled":1079,"oot":1080,"Ġair":1081,"ĠBr":1082,"Ġimp":1083,"Ġmay":1084,"Ġsaid":1085,"aking":1086,"Ġrun":1087,"Ġcrit":1088,"Ġkm":1089,"ĠIs":1090,"ople":1091,"ull":1092,"ruct":1093,"ccess":1094,"Ġfeat":1095,"Ġepisode":1096,"Ġdesign":1097,"itt":1098,"ured":1099,"Ġland":1100,"Ġinst":1101,"Ġresp":1102,"Ġdisc":1103,"ments":1104,"ĠSp":1105,"imes":1106,"Ġdist":1107,"Ġuntil":1108,"Ġreturn":1109,"gest":1110,"Ġdescrib":1111,"yp":1112,"ists":1113,"Ġins":1114,"ĠCl":1115,"Ġstart":1116,"Ġattack":1117,"xt":1118,"ajor":1119,"Ġprev":1120,"ided":1121,"oss":1122,"Ġany":1123,"Ġfin":1124,"ĠBl":1125,"ĠAug":1126,"ĠGerman":1127,"ĠAugust":1128,"ink":1129,"Ġarea":1130,"amed":1131,"erson":1132,"ains":1133,"ially":1134,"ĠSept":1135,"my":1136,"erv":1137,"Ġprov":1138,"enn":1139,"ible":1140,"ism":1141,"ĠCol":1142,"Ġthough":1143,"Ġgener":1144,"ĠSeptember":1145,"ĠCar":1146,"Ġconst":1147,"Ġ13":1148,"Ġpass":1149,"Ġgovern":1150,"Ġnorth":1151,"ĠNorth":1152,"ty":1153,"Ġoffic":1154,"ange":1155,"ĠThey":1156,"osed":1157,"ĠComm":1158,"Ġsame":1159,"Ġown":1160,"Ġaround":1161,"ĠMan":1162,"Ġgroup":1163,"ove":1164,"Ġopen":1165,"Ġbecause":1166,"Ġsupport":1167,"cept":1168,"Ġreleased":1169,"Ġmillion":1170,"ĠPl":1171,"Ġeff":1172,"ets":1173,"Ġuse":1174,"Ġlike":1175,"ium":1176,"Ġsix":1177,"Ġsmall":1178,"Ġocc":1179,"ash":1180,"Ġsuccess":1181,"Ġfinal":1182,"Ġcount":1183,"chool":1184,"Ġadv":1185,"Ã©":1186,"Ġbatt":1187,"ĠJu":1188,"Ġappear":1189,"Ġmusic":1190,"aced":1191,"Ġgu":1192,"Ġsim":1193,"Ġpeople":1194,"ues":1195,"stem":1196,"ĠWorld":1197,"Ġfam":1198,"ĠChr":1199,"Ġfollowing":1200,"wards":1201,"ivision":1202,"ĠDe":1203,"Ġbr":1204,"Ġconc":1205,"Ġdam":1206,"ouse":1207,"Ġmod":1208,"Ġwin":1209,"Ġph":1210,"uth":1211,"ĠAll":1212,"ĠHowever":1213,"ina":1214,"ke":1215,"und":1216,"ilt":1217,"ians":1218,"Ġconsid":1219,"Ġlarge":1220,"Ġeach":1221,"Ġ195":1222,"ĠJune":1223,"ĠAd":1224,"oman":1225,"Ġresult":1226,"ck":1227,"ology":1228,"ution":1229,"ĠFor":1230,"ole":1231,"Ġed":1232,"ats":1233,"ropical":1234,"Ġele":1235,"ives":1236,"ĠSouth":1237,"Ġann":1238,"Ġ191":1239,"Ġfive":1240,"Ġ%":1241,"Ġreport":1242,"Ġpoint":1243,"Ġcontro":1244,"Ġcharacter":1245,"ĠMe":1246,"ged":1247,"Ġlife":1248,"Ġsouth":1249,"Ġstr":1250,"Ġ14":1251,"ĠJan":1252,"Ġvar":1253,"ĠPro":1254,"raph":1255,"ery":1256,"ĠBe":1257,"Ġgun":1258,"ording":1259,"eb":1260,"ales":1261,"Ġever":1262,"ended":1263,"ony":1264,"Ġ193":1265,"ately":1266,"Ġsince":1267,"Ġprom":1268,"Ġgr":1269,"ural":1270,"ax":1271,"ĠGu":1272,"ĠOct":1273,"ĠQ":1274,"med":1275,"ble":1276,"ically":1277,"avy":1278,"ĠStates":1279,"ox":1280,"aving":1281,"ling":1282,"Ġweek":1283,"ored":1284,"uary":1285,"Ġstate":1286,"Ġ$":1287,"Ġmajor":1288,"ĠFran":1289,"ont":1290,"Ġtook":1291,"ĠOctober":1292,"ified":1293,"ĠNov":1294,"ting":1295,"ys":1296,"ection":1297,"ĠEu":1298,"ected":1299,"Ġwill":1300,"empt":1301,"ĠII":1302,"iving":1303,"Ġreceived":1304,"lish":1305,"ball":1306,"Ġpartic":1307,"Ġpublic":1308,"ility":1309,"ĠJuly":1310,"raft":1311,"Ġclass":1312,"ae":1313,"Ġrest":1314,"ission":1315,"Ġcare":1316,"ague":1317,"Ġtit":1318,"Ġplayed":1319,"Ġline":1320,"Ġhel":1321,"ĠDec":1322,"Ġwhat":1323,"Ġbook":1324,"Ġdet":1325,"ĠHer":1326,"ional":1327,"Ġsystem":1328,"ple":1329,"by":1330,"Ġname":1331,"ops":1332,"ants":1333,"Ġlast":1334,"Ġnow":1335,"Ġ25":1336,"Ġprot":1337,"Ġport":1338,"Ġbuild":1339,"ĠJanuary":1340,"Ġ[":1341,"Ġ]":1342,"Ġincre":1343,"aim":1344,"ĠCan":1345,"esp":1346,"Ġstorm":1347,"ĠChrist":1348,"omet":1349,"Ġserv":1350,"Ġref":1351,"ively":1352,"Ġ30":1353,"ĠMc":1354,"hel":1355,"Ġlate":1356,"Ġincluded":1357,"ĠPh":1358,"Ġconf":1359,"Ġdue":1360,"ages":1361,"Ġmar":1362,"Ġtri":1363,"ĠYork":1364,"Ġdescribed":1365,"ret":1366,"dom":1367,"ĠDuring":1368,"aur":1369,"Ġwon":1370,"ĠKing":1371,"anc":1372,"Ġjust":1373,"ham":1374,"Ġmuch":1375,"app":1376,"Ġsingle":1377,"ĠApr":1378,"apan":1379,"ĠApril":1380,"Ġgovernment":1381,"gin":1382,"Ġallow":1383,"ner":1384,"ody":1385,"..":1386,"Ġsl":1387,"iod":1388,"ideo":1389,"Ġworld":1390,"ĠJapan":1391,"get":1392,"Ġdeath":1393,"oad":1394,"Ġappro":1395,"sion":1396,"Ġattempt":1397,"ital":1398,"Ġcommand":1399,"ĠNovember":1400,"Ġkill":1401,"rote":1402,"Ġanother":1403,"itions":1404,"Ġleft":1405,"Ġcamp":1406,"Ġmen":1407,"Ġ...":1408,"ently":1409,"Ġalthough":1410,"ai":1411,"Ġwithin":1412,"Ġshort":1413,"Ġposs":1414,"ger":1415,"Ġold":1416,"ĠPar":1417,"orp":1418,"Ġnamed":1419,"ech":1420,"Ġwrote":1421,"ĠEurop":1422,"ene":1423,"ĠMus":1424,"Ġeven":1425,"Ġbuilt":1426,"urther":1427,"Ġorgan":1428,"rand":1429,"ched":1430,"Ġturn":1431,"Ġtop":1432,"omin":1433,"ption":1434,"ract":1435,"Ġbased":1436,"idge":1437,"Ġtrack":1438,"ays":1439,"Ġplace":1440,"ĠMarch":1441,"itary":1442,"ĠBatt":1443,"Ġprog":1444,"Ġchild":1445,"rench":1446,"Ġpower":1447,"Ġthird":1448,"ĠGe":1449,"ĠDecember":1450,"Ġprevious":1451,"ness":1452,"Ġevent":1453,"Ġpar":1454,"Ġstar":1455,"Ġspecies":1456,"ulation":1457,"ĠNational":1458,"Ġif":1459,"Ġcap":1460,"Ġestab":1461,"Ġvis":1462,"Ġdiffer":1463,"ards":1464,"ipp":1465,"Ġschool":1466,"ached":1467,"Ġbelie":1468,"ĠBy":1469,"Ġvery":1470,"ĠAnd":1471,"Ġbre":1472,"ung":1473,"Ġperson":1474,"Ġhome":1475,"ilar":1476,"Ġdr":1477,"osp":1478,"Ġexpl":1479,"Ġperiod":1480,"ler":1481,"Ġwater":1482,"ances":1483,"Ġlist":1484,"Ġrequ":1485,"ĠThere":1486,"Ġgames":1487,"Ġhal":1488,"ms":1489,"Ġtem":1490,"ves":1491,"amb":1492,"Ġhand":1493,"Ġreview":1494,"iversity":1495,"ĠCity":1496,"ĠRiver":1497,"ĠFrench":1498,"Ġ192":1499,"que":1500,"Ġeng":1501,"ison":1502,"oint":1503,"eder":1504,"Ġbest":1505,"Ġsent":1506,"aged":1507,"Ġrepl":1508,"Ġthose":1509,"iven":1510,"Ġhum":1511,"ides":1512,"ĠEurope":1513,"Ġwind":1514,"Ġ100":1515,"Ġmonth":1516,"ese":1517,"ense":1518,"ĠHis":1519,"ĠWhen":1520,"oci":1521,"ĠEngland":1522,"Ġmed":1523,"side":1524,"Ġdest":1525,"ruction":1526,"hest":1527,"ature":1528,"Ġled":1529,"ĠNo":1530,"Ġcour":1531,"elt":1532,"Ġ2010":1533,"Ġbo":1534,"Ġgreat":1535,"Ġcapt":1536,"ences":1537,"aken":1538,"let":1539,"ĠFl":1540,"Ġfamily":1541,"aster":1542,"ience":1543,"ĠÂ":1544,"Ġbas":1545,"Ġmake":1546,"ĠSte":1547,"mp":1548,"Ġvideo":1549,"Ġoriginal":1550,"Ġopp":1551,"Ġ2008":1552,"Ġnext":1553,"Ġcame":1554,"inc":1555,"Ġdem":1556,"akes":1557,"Ġtyp":1558,"urric":1559,"ention":1560,"Ġstill":1561,"ĠComp":1562,"Ġterm":1563,"Ġside":1564,"Ġmark":1565,"Ġmoved":1566,"Ġrole":1567,"Ġleg":1568,"Ġcontinued":1569,"ented":1570,"Ġstory":1571,"ĠOr":1572,"alk":1573,"Ġfew":1574,"Ġlocal":1575,"Ġway":1576,"Ġ2009":1577,"Ġsold":1578,"Ġcaus":1579,"ĠDivision":1580,"Ġwest":1581,"Ġhistory":1582,"Ġmid":1583,"ott":1584,"ĠChurch":1585,"gy":1586,"atter":1587,"ior":1588,"ĠTe":1589,"Ġview":1590,"line":1591,"bs":1592,"oon":1593,"Ġheld":1594,"rew":1595,"uted":1596,"Ġforces":1597,"aining":1598,"ival":1599,"embers":1600,"Ġsug":1601,"Ġauth":1602,"Ġformer":1603,"ĠPr":1604,"Ġiss":1605,"Ġaddition":1606,"read":1607,"Ġroad":1608,"uss":1609,"ĠAm":1610,"riend":1611,"lev":1612,"ĠBro":1613,"eng":1614,"lu":1615,"Ġant":1616,"Ġcover":1617,"Ġoften":1618,"ne":1619,"ĠChar":1620,"sh":1621,"Ġeast":1622,"Ġfurther":1623,"astern":1624,"ograph":1625,"Ġconsidered":1626,"Ġcareer":1627,"Ġeffect":1628,"ĠEd":1629,"ĠWe":1630,"Ġstand":1631,"ining":1632,"arn":1633,"Ġtown":1634,"ĠWill":1635,"Ġclaim":1636,"Ġright":1637,"Ġcr":1638,"ront":1639,"Ġinit":1640,"Ġdeb":1641,"ampions":1642,"ches":1643,"eter":1644,"Ġ21":1645,"Ġtot":1646,"Ġ2007":1647,"ĠOne":1648,"Ġposition":1649,"self":1650,"ories":1651,"Ġexper":1652,"Ġdel":1653,"Ġarch":1654,"Ġnort":1655,"ĠState":1656,"Ġmilitary":1657,"Ġmatch":1658,"Ġ23":1659,"ĠWith":1660,"enc":1661,"Ġdra":1662,"ĠAb":1663,"Ġhalf":1664,"Ġtropical":1665,"ĠAcc":1666,"ternational":1667,"Ġsimilar":1668,"Ġhelp":1669,"Ġsuggest":1670,"par":1671,"roy":1672,"Ġstrong":1673,"Ġ24":1674,"Ġdefe":1675,"Ġfire":1676,"Ġconv":1677,"ister":1678,"Ġband":1679,"ĠCount":1680,"ĠRec":1681,"Ġimport":1682,"Ġplayer":1683,"Ġrefer":1684,"Ġwithout":1685,"ĠGener":1686,"Ġcur":1687,"Ġreal":1688,"Ġpolit":1689,"alion":1690,"Ġdays":1691,"Ġtrad":1692,"urricane":1693,"Ġplan":1694,"Ġcommun":1695,"estern":1696,"Ġmembers":1697,"Ġ2011":1698,"Ġtake":1699,"ĠTr":1700,"Ġspe":1701,"ebru":1702,"ead":1703,"ĠX":1704,"Ġtw":1705,"Ġmy":1706,"ried":1707,"Ġcompany":1708,"Ġclub":1709,"iment":1710,"ĠPer":1711,"Ġcommon":1712,"Ġav":1713,"Ġamong":1714,"Ġ22":1715,"Ġlevel":1716,"ensive":1717,"Ġdifferent":1718,"ones":1719,"Ġyou":1720,"Ġevery":1721,"Ġpost":1722,"Ġrecorded":1723,"Ġprop":1724,"ots":1725,"Ġel":1726,"itar":1727,"Ġhowever":1728,"ĠFebru":1729,"ĠEar":1730,"ĠAlthough":1731,"ĠFebruary":1732,"Ġelect":1733,"Ġbeh":1734,"Ġinvol":1735,"augh":1736,"Ġfore":1737,"Ġ2012":1738,"ĠAustralian":1739,"iter":1740,"ĠPort":1741,"Ġrepres":1742,"eal":1743,"Ġ2006":1744,"ĠEnglish":1745,"Ġarr":1746,"yn":1747,"arr":1748,"Ġpublished":1749,"ĠAf":1750,"Ġ26":1751,"Ġlow":1752,"ize":1753,"ression":1754,"reen":1755,"yle":1756,"hern":1757,"ĠAccording":1758,"Ġfind":1759,"Ġships":1760,"Ġorder":1761,"lear":1762,"Ġwritten":1763,"ering":1764,"ittle":1765,"outher":1766,"Ġmag":1767,"Ġtro":1768,"atic":1769,"be":1770,"Ġvict":1771,"Ġtotal":1772,"isc":1773,"ices":1774,"ploy":1775,"Ġfre":1776,"Ġpat":1777,"rodu":1778,"Ġrelease":1779,"Ġorigin":1780,"outhern":1781,"ĠSu":1782,"ĠAustralia":1783,"Ġfield":1784,"Ġparticular":1785,"Ġsongs":1786,"Ġtitle":1787,"Ġbecome":1788,"Ġfoot":1789,"ĠAir":1790,"Ġcompet":1791,"Ġer":1792,"ĠAng":1793,"ising":1794,"ĠPark":1795,"Ġreported":1796,"Ġcontrol":1797,"ĠGeneral":1798,"Ġlost":1799,"ĠMich":1800,"rick":1801,"Ġprof":1802,"Ġord":1803,"Ġproject":1804,"reet":1805,"ush":1806,"Ġcomb":1807,"ĠCanad":1808,"Ġtimes":1809,"Ġhaving":1810,"aces":1811,"sequ":1812,"Ġsurv":1813,"Ġft":1814,"Ġgave":1815,"Ġter":1816,"aying":1817,"ĠCent":1818,"Ġproduced":1819,"Ġstat":1820,"Ġversion":1821,"ĠLeague":1822,"Ġsk":1823,"Ġcy":1824,"urs":1825,"esc":1826,"ĠEl":1827,"ampionship":1828,"ĠAss":1829,"rest":1830,"ĠWest":1831,"ĠUniversity":1832,"Ġ!":1833,"Ġequ":1834,"rent":1835,"Ġlight":1836,"ĠMin":1837,"ĠBar":1838,"Ġ28":1839,"Ġproduction":1840,"iety":1841,"oung":1842,"Ġsignific":1843,"Ġless":1844,"Ġchang":1845,"Ġauthor":1846,"iron":1847,"ĠGeor":1848,"ream":1849,"ably":1850,"ours":1851,"ailed":1852,"ĠReg":1853,"levision":1854,"Ġhistor":1855,"ges":1856,"Ġjo":1857,"ĠThese":1858,"Ġnever":1859,"Ġinflu":1860,"ĠRich":1861,"ille":1862,"Ġcountry":1863,"quad":1864,"ald":1865,"Ã¡":1866,"Ġgiven":1867,"ĠRoman":1868,"Ġarm":1869,"Ġaff":1870,"Ġsite":1871,"Ġmaking":1872,"Ġforce":1873,"Ġ&":1874,"Ġwant":1875,"used":1876,"Ġ27":1877,"Ġinclude":1878,"Ġreturned":1879,"echn":1880,"Ġpopular":1881,"ĠAfric":1882,"aul":1883,"work":1884,"Ġsol":1885,"Ġ50":1886,"Ġground":1887,"na":1888,"ither":1889,"Ġobs":1890,"Ġpress":1891,"Ġeight":1892,"ĠMiss":1893,"vers":1894,"oard":1895,"Ġsit":1896,"ĠRoad":1897,"Ġ2013":1898,"Ġdestroy":1899,"ades":1900,"ivil":1901,"Ġisland":1902,"antry":1903,"Ġcritic":1904,"ator":1905,"Ġnight":1906,"Ġstated":1907,"ĠLes":1908,"ization":1909,"Ġacross":1910,"ĠPol":1911,"ination":1912,"ask":1913,"Ġstruct":1914,"me":1915,"Ġreached":1916,"Ġchurch":1917,"ĠWilliam":1918,"Ġfar":1919,"Ġdeveloped":1920,"Ġseen":1921,"ring":1922,"ffic":1923,"aun":1924,"fic":1925,"ford":1926,"ape":1927,"ĠAmerica":1928,"Ġpopulation":1929,"ĠWhile":1930,"ĠJapanese":1931,"Ġcult":1932,"aff":1933,"Ġlim":1934,"Ġpresent":1935,"Ġmiles":1936,"Ġprogram":1937,"Ġannoun":1938,"ration":1939,"reek":1940,"ĠSim":1941,"ĠSong":1942,"ius":1943,"Ġfact":1944,"Ġcross":1945,"ument":1946,"Ġsignificant":1947,"sp":1948,"Ġ29":1949,"Ġshould":1950,"Ġestabl":1951,"Ġearl":1952,"Ġ190":1953,"ĠJack":1954,"omb":1955,"Ġusing":1956,"oyal":1957,"Ġchildren":1958,"cess":1959,"Ġread":1960,"omen":1961,"Ġaway":1962,"iness":1963,"Ġnov":1964,"ground":1965,"ĠLond":1966,"Ġfriend":1967,"Ġrad":1968,"Ġguns":1969,"aign":1970,"ĠOld":1971,"ological":1972,"reg":1973,"Ġdiv":1974,"Ġhimself":1975,"ĠCounty":1976,"Ġhow":1977,"Ġmanag":1978,"craft":1979,"Ġpit":1980,"alth":1981,"ĠMount":1982,"ĠDav":1983,"Ġdevelopment":1984,"Ġestablished":1985,"ĠLondon":1986,"imately":1987,"Ġmodern":1988,"Ġbody":1989,"Ġbattle":1990,"Ġmm":1991,"Ġformed":1992,"Ġthought":1993,"eared":1994,"Ġbar":1995,"Ġpra":1996,"Ġsound":1997,"Ġperformance":1998,"igade":1999,"isted":2000,"ope":2001,"Ġcast":2002,"Ġhig":2003,"Ġgen":2004,"Ġthroughout":2005,"iers":2006,"Ġwent":2007,"Ġfelt":2008,"Ġpain":2009,"Ġareas":2010,"aren":2011,"arch":2012,"most":2013,"Ġcat":2014,"ĠIm":2015,"rie":2016,"Ġkilled":2017,"Ġwat":2018,"Ġtour":2019,"ĠHigh":2020,"ĠScient":2021,"ero":2022,"Ġlaw":2023,"utes":2024,"Ġprim":2025,"ĠBlack":2026,"Ġsomet":2027,"Ġfight":2028,"Ġgood":2029,"ĠNe":2030,"Ġsuccessful":2031,"ĠCal":2032,"Ġintrodu":2033,"ylan":2034,"iec":2035,"Ġdied":2036,"Ġgl":2037,"ements":2038,"Ġseven":2039,"ĠDylan":2040,"Ġnoted":2041,"ords":2042,"Ġcou":2043,"acy":2044,"oll":2045,"ript":2046,"Ġrange":2047,"ublic":2048,"field":2049,"itive":2050,"Ġdiscover":2051,"Ġfull":2052,"Ġtoo":2053,"Ġste":2054,"Ġimportant":2055,"af":2056,"Ġsoc":2057,"Ġmount":2058,"irc":2059,"Ġadm":2060,"Ġlocated":2061,"Ġten":2062,"Ġfront":2063,"ĠEx":2064,"ĠArmy":2065,"Ġblack":2066,"Ġstarted":2067,"Ġput":2068,"Ġdecl":2069,"Ġbuilding":2070,"ĠEv":2071,"ief":2072,"Ġneed":2073,"ĠHa":2074,"Ġchart":2075,"ĠPhil":2076,"Ġide":2077,"Ġhuman":2078,"ico":2079,"ĠGl":2080,"Ġ31":2081,"Ġactiv":2082,"Ġperformed":2083,"Ġvarious":2084,"epend":2085,"ĠCompany":2086,"eth":2087,"osaur":2088,"Ġremained":2089,"Ġwriting":2090,"Ġcas":2091,"Ġlook":2092,"Ġtelevision":2093,"Ġfeet":2094,"fall":2095,"Ġsee":2096,"Ġtroops":2097,"ĠOl":2098,"ways":2099,"Ġofficial":2100,"con":2101,"reland":2102,"Ġfem":2103,"Ġfather":2104,"ĠFeder":2105,"Ġcaused":2106,"itted":2107,"Ġfun":2108,"Ġnational":2109,"ĠIreland":2110,"Ġpoem":2111,"com":2112,"Ġwid":2113,"Ġwhite":2114,"ogn":2115,"Ġhouse":2116,"ĠTo":2117,"ĠJames":2118,"ries":2119,"Äģ":2120,"Ġtechn":2121,"Ġheavy":2122,"Ġinterest":2123,"ĠSec":2124,"idence":2125,"ĠHar":2126,"Ġconstruction":2127,"Ġage":2128,"Ġred":2129,"Ġsum":2130,"hem":2131,"ara":2132,"Ġget":2133,"Ġ2005":2134,"iting":2135,"ĠMon":2136,"ĠHist":2137,"Ġplayers":2138,"uck":2139,"gr":2140,"Ġstri":2141,"Ġstyle":2142,"ĠPal":2143,"ump":2144,"ael":2145,"Ġentire":2146,"Ġsw":2147,"Ġke":2148,"idd":2149,"ino":2150,"ĠKe":2151,"Ġevents":2152,"Ġdoes":2153,"Ġsett":2154,"ĠIsland":2155,"ĠRober":2156,"ourn":2157,"Ġmix":2158,"Ġrev":2159,"Ġbegin":2160,"Ġvill":2161,"Ġable":2162,"Ġrelig":2163,"quadron":2164,"ressed":2165,"Ġcoast":2166,"Ġserved":2167,"Ġpeak":2168,"asing":2169,"Ġcampaign":2170,"Ġfav":2171,"ĠBut":2172,"Ġpolitical":2173,"Ġlik":2174,"ĠYou":2175,"enced":2176,"Ġ40":2177,"Ġregion":2178,"lected":2179,"Ġcreated":2180,"Ġtre":2181,"ened":2182,"ĠCo":2183,"mar":2184,"leet":2185,"Ġonce":2186,"Ġgod":2187,"por":2188,"ids":2189,"duct":2190,"Ġfig":2191,"enth":2192,"ĠCare":2193,"ĠMag":2194,"Ġfollowed":2195,"ĠBattalion":2196,"antic":2197,"Ġ189":2198,"Ġothers":2199,"ĠAtl":2200,"Ġpromot":2201,"Ġpri":2202,"Ġagre":2203,"Ġworks":2204,"ÃŃ":2205,"Ġson":2206,"ster":2207,"abor":2208,"ĠâĢĻ":2209,"Ġroute":2210,"Ġestim":2211,"less":2212,"Ġcompleted":2213,"ficult":2214,"Ġcond":2215,"elling":2216,"Ġannounced":2217,"ĠCro":2218,"Ġ2004":2219,"here":2220,"Ġbecom":2221,"day":2222,"ĠSy":2223,"Ġrank":2224,"Ġleast":2225,"Ġmeet":2226,"Ġdifficult":2227,"Ġcoun":2228,"Ġhold":2229,"ĠDu":2230,"Ġadded":2231,"Ġball":2232,"ivid":2233,"rab":2234,"Ġoriginally":2235,"Ġval":2236,"rought":2237,"ample":2238,"ique":2239,"ana":2240,"ĠSw":2241,"play":2242,"ought":2243,"rict":2244,"Ġrelations":2245,"Ġcharacters":2246,"Ġoccur":2247,"Ġfac":2248,"Ġbus":2249,"Ġappeared":2250,"Ġrock":2251,"Ġmonths":2252,"Ġcert":2253,"ĠHam":2254,"Ġspecial":2255,"br":2256,"Ġident":2257,"urb":2258,"ki":2259,"Ġsouthern":2260,"rap":2261,"Ġcolle":2262,"Ġround":2263,"Ġpred":2264,"Ġloss":2265,"ament":2266,"ects":2267,"Ġbase":2268,"Ġlittle":2269,"odes":2270,"Ġcomment":2271,"Ġassoci":2272,"cher":2273,"ĠMer":2274,"ĠRoyal":2275,"Ġconn":2276,"ĠOther":2277,"Ġprocess":2278,"Ġsuper":2279,"Ġbroad":2280,"Ġmi":2281,"ĠAct":2282,"ĠSom":2283,"Ġinstead":2284,"Ġdamage":2285,"Ġborn":2286,"emy":2287,"ality":2288,"Ġtradition":2289,"Ġ2015":2290,"Ġaircraft":2291,"cer":2292,"aly":2293,"ett":2294,"ĠKingdom":2295,"ying":2296,"ĠRout":2297,"pped":2298,"Ġfeatures":2299,"Ġ2003":2300,"Ġaud":2301,"orse":2302,"ĠTown":2303,"unk":2304,"Ġdecided":2305,"Ġbehind":2306,"Ġcycl":2307,"oice":2308,"Ġlack":2309,"Ġenc":2310,"Ġaccom":2311,"ency":2312,"cil":2313,"Ġeastern":2314,"Ġknow":2315,"Ġservice":2316,"Ġredu":2317,"ĠRep":2318,"Ġlet":2319,"ĠTwo":2320,"Ġgrow":2321,"Ġnovel":2322,"oo":2323,"ĠSan":2324,"ĠMad":2325,"Ġnon":2326,"umb":2327,"Ġvol":2328,"Ġsuff":2329,"igned":2330,"Ġ188":2331,"Ġhighway":2332,"ray":2333,"Ġaward":2334,"Ġriver":2335,"Ġcritics":2336,"heast":2337,"Ġcirc":2338,"ĠEast":2339,"Ġsaw":2340,"ĠScientology":2341,"Ġtaken":2342,"Ġoperations":2343,"ĠMex":2344,"ĠRoute":2345,"Ġfif":2346,"Ġmass":2347,"ĠMor":2348,"ĠBra":2349,"Ġrecogn":2350,"ĠMcC":2351,"ming":2352,"Ġwife":2353,"Ġtowards":2354,"Ġclose":2355,"angu":2356,"Ġfourth":2357,"ault":2358,"ned":2359,"Ġaver":2360,"Ġaction":2361,"ĠSome":2362,"ĠBill":2363,"gg":2364,"Ġvoc":2365,"Ġeither":2366,"ĠPres":2367,"Ġanim":2368,"oph":2369,"ĠStreet":2370,"ĠChampionship":2371,"off":2372,"Ġeventually":2373,"Ġtest":2374,"ata":2375,"ators":2376,"ecut":2377,"istic":2378,"aching":2379,"ĠDavid":2380,"Ġclos":2381,"Ġreb":2382,"ĠSer":2383,"ĠFrance":2384,"Ġrepresent":2385,"Ġhurricane":2386,"urg":2387,"olution":2388,"illa":2389,"Ġsepar":2390,"Ġscored":2391,"Ġappoint":2392,"Ġsubsequ":2393,"alt":2394,"Ġlive":2395,"Ġimpro":2396,"cast":2397,"Ġz":2398,"ica":2399,"Ġmother":2400,"Ġfort":2401,"Ġalmost":2402,"Ġproble":2403,"Ġcoll":2404,"Ġbird":2405,"ĠWales":2406,"Ġindivid":2407,"Ġprofess":2408,"Ġstage":2409,"iff":2410,"Ġ185":2411,"azine":2412,"Ġnorthern":2413,"Ġstars":2414,"Ġcommer":2415,"ude":2416,"Ġyoung":2417,"ĠMusic":2418,"Ġcut":2419,"Ġmiss":2420,"Ġsex":2421,"Ġce":2422,"Ġfall":2423,"ĠFollow":2424,"Ġ35":2425,"iber":2426,"Ġwall":2427,"Ġren":2428,"Ġask":2429,"aval":2430,"ĠEm":2431,"Ġcentral":2432,"ĠIndian":2433,"Ġfeatured":2434,"Ġcor":2435,"Ġlaun":2436,"aper":2437,"ĠCup":2438,"ĠBo":2439,"ĠHill":2440,"ĠNY":2441,"Ġcrew":2442,"ography":2443,"ores":2444,"Ġdou":2445,"ceed":2446,"ĠGrand":2447,"Ġhon":2448,"orts":2449,"Ġunits":2450,"medi":2451,"ĠRock":2452,"ĠInf":2453,"Ġexample":2454,"iol":2455,"Ġhost":2456,"ota":2457,"Ġrul":2458,"Ġplaying":2459,"Ġaccept":2460,"Ġmove":2461,"Ġwomen":2462,"ston":2463,"stit":2464,"ully":2465,"Ġarg":2466,"Ġrespons":2467,"Ġgeneral":2468,"Ġbelieved":2469,"ĠFollowing":2470,"west":2471,"ĠAg":2472,"ending":2473,"Ġgoal":2474,"Ġiron":2475,"Ġbrought":2476,"ama":2477,"emor":2478,"chie":2479,"Ġ500":2480,"Ġmot":2481,"lement":2482,"Ġking":2483,"ĠRobert":2484,"ĠCarey":2485,"Ġcase":2486,"Ġtoget":2487,"aves":2488,"ĠInternational":2489,"Ġtogether":2490,"men":2491,"uation":2492,"arter":2493,"Ġmater":2494,"ĠGod":2495,"Ġexc":2496,"Ġwinds":2497,"aut":2498,"ĠSl":2499,"ĠBer":2500,"cial":2501,"eum":2502,"Ġnuc":2503,"Ġdev":2504,"Ġplaced":2505,"Ġlargest":2506,"Ġdirected":2507,"Ġrelationship":2508,"Ġmph":2509,"ĠMed":2510,"Ġstru":2511,"ĠPart":2512,"reng":2513,"Ġleading":2514,"Ġfinished":2515,"iation":2516,"Ġlangu":2517,"Ġintens":2518,"wood":2519,"Ġ186":2520,"Ġupon":2521,"Ġinsp":2522,"Ġcourt":2523,"Ġsour":2524,"Ġmember":2525,"ĠJew":2526,"Ġcontract":2527,"Ġindust":2528,"Ġprovided":2529,"board":2530,"co":2531,"ential":2532,"ĠPaul":2533,"Ġrather":2534,"ĠBrigade":2535,"Ġweeks":2536,"head":2537,"Ġshot":2538,"Ġflood":2539,"Ġcurrent":2540,"ving":2541,"ĠFrom":2542,"Ġopened":2543,"oring":2544,"ĠDay":2545,"ĠGame":2546,"Ġsequ":2547,"Ġemploy":2548,"uel":2549,"ville":2550,"Ġcreat":2551,"Ġhy":2552,"ĠPe":2553,"artment":2554,"ĠThom":2555,"val":2556,"icated":2557,"ishing":2558,"Ġappearance":2559,"Ġcivil":2560,"Ġey":2561,"bert":2562,"ights":2563,"cing":2564,"Ġprob":2565,"Ġve":2566,"Ġinvest":2567,"ĠCommand":2568,"Ġopening":2569,"Ġelements":2570,"go":2571,"ule":2572,"Ġ-":2573,"ĠHen":2574,"Ġstreng":2575,"AF":2576,"ĠPre":2577,"Ġregular":2578,"ih":2579,"atin":2580,"Ġinform":2581,"asion":2582,"ĠFirst":2583,"Ġdirector":2584,"Ġdesigned":2585,"Ġpoints":2586,"Ġinvolved":2587,"Ġearlier":2588,"Ġcost":2589,"Ġcell":2590,"Ġhours":2591,"ida":2592,"iding":2593,"Ġyards":2594,"Ġemb":2595,"Ġrespect":2596,"Ġgenerally":2597,"Ġallowed":2598,"hing":2599,"Ġreve":2600,"iction":2601,"Ġmeas":2602,"ĠWhite":2603,"ĠGeorge":2604,"Ġfoc":2605,"Ġconduct":2606,"ĠEuropean":2607,"Ġsaying":2608,"Ġoutside":2609,"Ġpossible":2610,"erous":2611,"Ġbeg":2612,"ĠNavy":2613,"Ġmean":2614,"Ġquick":2615,"Ġbi":2616,"Ġburn":2617,"ĠSm":2618,"ĠMy":2619,"ĠViet":2620,"enes":2621,"Ġengine":2622,"Ġreplaced":2623,"Ġwanted":2624,"cent":2625,"now":2626,"ĠMark":2627,"Ġgra":2628,"conom":2629,"ls":2630,"uk":2631,"Ġmer":2632,"Ġreact":2633,"ĠDep":2634,"aps":2635,"ellow":2636,"nar":2637,"ĠAc":2638,"ĠBest":2639,"Ġdesp":2640,"Ġvictory":2641,"Ġwood":2642,"ington":2643,"eck":2644,"Ġhom":2645,"Ġexist":2646,"Ġpreviously":2647,"liam":2648,"tar":2649,"Ġfund":2650,"ĠCr":2651,"Ġleng":2652,"ĠRh":2653,"Ġworking":2654,"Ġparticularly":2655,"Ġestimated":2656,"Ġabove":2657,"Ġ187":2658,"Ġ2014":2659,"Ġjoined":2660,"to":2661,"etwork":2662,"Ġpract":2663,"Ġmetres":2664,"ĠQu":2665,"ĠChristian":2666,"ĠAngel":2667,"Ġbusiness":2668,"Ġill":2669,"Ġesc":2670,"ĠMost":2671,"ĠIr":2672,"ĠPac":2673,"ĠRed":2674,"ze":2675,"Ġclear":2676,"ĠDesp":2677,"ĠKore":2678,"Ġ2001":2679,"inese":2680,"ĠLove":2681,"Ġseem":2682,"Ġ2000":2683,"Ġneg":2684,"Ġtravel":2685,"anned":2686,"ĠFlor":2687,"for":2688,"osition":2689,"ĠChinese":2690,"Ġremov":2691,"Ġ1970":2692,"sel":2693,"uter":2694,"Ġachie":2695,"ita":2696,"Ġhit":2697,"Ġforced":2698,"ula":2699,"Ġdraw":2700,"ĠDespite":2701,"bor":2702,"ma":2703,"Ġcop":2704,"ĠHouse":2705,"pper":2706,"Ġdiss":2707,"liament":2708,"Ġly":2709,"Ġworked":2710,"Ġtransport":2711,"Ġavail":2712,"Ġpraised":2713,"Ġmach":2714,"ĠCorp":2715,"ĠMo":2716,"urt":2717,"Ġprote":2718,"onst":2719,"Ġpers":2720,"Ġpast":2721,"Ġwithd":2722,"Ġtransfer":2723,"Ġlength":2724,"Ġbur":2725,"Ġinj":2726,"Ġmult":2727,"Ġscene":2728,"Ġpoet":2729,"rated":2730,"Ġreason":2731,"ecess":2732,"aint":2733,"elled":2734,"ĠZeal":2735,"Ġstudy":2736,"ĠZealand":2737,"nel":2738,"Ġslow":2739,"atural":2740,"itz":2741,"Ġfr":2742,"Ġfree":2743,"Ġthreat":2744,"ĠMac":2745,"ĠLa":2746,"osing":2747,"ĠVal":2748,"Ġrain":2749,"Ġmaint":2750,"ĠPlay":2751,"Ġincreased":2752,"ps":2753,"ties":2754,"Ġcondom":2755,"ĠOper":2756,"ĠKh":2757,"Ġresear":2758,"ĠBritain":2759,"Ġordered":2760,"ste":2761,"Ġconstruct":2762,"ĠBattle":2763,"ee":2764,"Ġthink":2765,"Ġstation":2766,"opp":2767,"ĠMichael":2768,"Ġmaterial":2769,"mb":2770,"ĠRuss":2771,"ago":2772,"ĠÂ°":2773,"ĠSuper":2774,"Ġ1990":2775,"Ġregard":2776,"Ġobject":2777,"ĠLesnar":2778,"ĠMexico":2779,"ĠCreek":2780,"ĠBay":2781,"ĠWal":2782,"ĠWil":2783,"aker":2784,"Ġevidence":2785,"ĠAtlantic":2786,"nes":2787,"rd":2788,"acing":2789,"ĠLater":2790,"ĠGal":2791,"Ġ45":2792,"ibility":2793,"Ġaccount":2794,"Ġfootball":2795,"Ġtrib":2796,"ĠGreat":2797,"Ġviol":2798,"Ġremains":2799,"Ġrap":2800,"Ġsyn":2801,"Ġmanager":2802,"Ġnomin":2803,"ĠMary":2804,"irth":2805,"Ġwhom":2806,"anding":2807,"Ġpoor":2808,"Ġsoon":2809,"Ġhous":2810,"ĠHall":2811,"Ġwestern":2812,"ania":2813,"ĠTor":2814,"Ġlines":2815,"ĠDon":2816,"Ġrace":2817,"Ġ60":2818,"Ġcenter":2819,"ification":2820,"ĠPacific":2821,"Ġface":2822,"ching":2823,"ĠGovern":2824,"ĠEarly":2825,"ĠRepublic":2826,"uz":2827,"ĠOs":2828,"ributed":2829,"ready":2830,"Ġhighest":2831,"ĠFederer":2832,"ĠÃ":2833,"ites":2834,"leg":2835,"oms":2836,"Ġarmy":2837,"ĠFlorida":2838,"wh":2839,"Ġtreat":2840,"ulf":2841,"Ġrail":2842,"ĠQue":2843,"vest":2844,"aries":2845,"anish":2846,"Ġdon":2847,"Ġgre":2848,"ĠPo":2849,"ĠGold":2850,"Ġchange":2851,"Ġ2002":2852,"Ġparticip":2853,"Ġturned":2854,"ĠÂ£":2855,"ship":2856,"Ġnine":2857,"Ġsurf":2858,"Ġfemale":2859,"Ġaverage":2860,"lict":2861,"Ġpen":2862,"ĠSchool":2863,"ession":2864,"ordan":2865,"Ġinterview":2866,"Ġarrived":2867,"ĠRichard":2868,"porary":2869,"Ġyard":2870,"Ġsigned":2871,"Ġbreak":2872,"Ġterrit":2873,"BC":2874,"Ġtaking":2875,"Ġpur":2876,"ĠSch":2877,"clus":2878,"Ġitself":2879,"Ġsubject":2880,"Ġpriv":2881,"anks":2882,"Ġblock":2883,"Ġclaimed":2884,"ĠInfantry":2885,"ĠOp":2886,"Ġdamaged":2887,"ĠHero":2888,"Ġstructure":2889,"ecutive":2890,"Ġavailable":2891,"erved":2892,"Ġlove":2893,"eler":2894,"Ġheav":2895,"ĠGr":2896,"Ġcontr":2897,"Ġsurround":2898,"Ġcommercial":2899,"ĠThomas":2900,"oul":2901,"ĠJordan":2902,"Ġimmedi":2903,"Ġstudio":2904,"Ġoccup":2905,"Ġdefeated":2906,"Ġpiec":2907,"ouri":2908,"ĠApp":2909,"Ġinitially":2910,"Ġcommunity":2911,"Ġdro":2912,"Ġhard":2913,"ĠHol":2914,"abit":2915,"ĠUnion":2916,"Ġtraining":2917,"Ġbrother":2918,"ĠRegiment":2919,"chest":2920,"hib":2921,"ky":2922,"Ġsection":2923,"arily":2924,"Ġbill":2925,"vert":2926,"ĠOliv":2927,"Ġdespite":2928,"band":2929,"Ġcal":2930,"Ġnames":2931,"ulated":2932,"ĠOd":2933,"Ġdisp":2934,"Ġdepression":2935,"gypt":2936,"ĠPresident":2937,"ximately":2938,"ĠAward":2939,"ĠMet":2940,"Ġgold":2941,"ĠDr":2942,"rian":2943,"Ġ36":2944,"ĠVir":2945,"Ġtru":2946,"ĠEgypt":2947,"Ġpassed":2948,"ĠCanada":2949,"Ġvillage":2950,"Ġesp":2951,"Ġinternational":2952,"Ġtold":2953,"Ġeconom":2954,"Ġwhose":2955,"Ġexcept":2956,"ference":2957,"Ġquarter":2958,"Ġhar":2959,"Ġalready":2960,"ateg":2961,"ĠUnder":2962,"Ġ75":2963,"Ġincreasing":2964,"oor":2965,"Ġcru":2966,"arters":2967,"ila":2968,"Ġlatter":2969,"ĠMa":2970,"ĠBel":2971,"ĠYear":2972,"Ġ1960":2973,"ĠCarol":2974,"Ġrequired":2975,"Ġprobably":2976,"Ġwide":2977,"ases":2978,"ĠTom":2979,"ĠBus":2980,"ĠThat":2981,"Ġparts":2982,"Ġappointed":2983,"Ġstates":2984,"ription":2985,"Ġkey":2986,"Ġ38":2987,"Ġ183":2988,"Ġestablish":2989,"stein":2990,"ari":2991,"urity":2992,"rag":2993,"ume":2994,"ĠScott":2995,"Ġdebut":2996,"Ġreligious":2997,"ĠVietn":2998,"down":2999,"inist":3000,"oration":3001,"Ġfly":3002,"ĠTimes":3003,"Ġproper":3004,"Ġpolice":3005,"Ġcomplet":3006,"Ġgrad":3007,"Ġsoldiers":3008,"ĠArt":3009,"Ġcapital":3010,"ĠMissouri":3011,"ĠHenry":3012,"AS":3013,"ney":3014,"Ġliter":3015,"Ġforward":3016,"thlet":3017,"ranch":3018,"Ġbetter":3019,"Ġassist":3020,"oid":3021,"áĥ":3022,"Ġmust":3023,"ĠTem":3024,"Ġabs":3025,"Ġcolon":3026,"Ġden":3027,"Ġdate":3028,"ilities":3029,"ĠNot":3030,"Ġcome":3031,"Ġdead":3032,"Ġremaining":3033,"Ġsuggested":3034,"Ġbeginning":3035,"Ġsize":3036,"atory":3037,"Ġgive":3038,"Ġanc":3039,"Ġenough":3040,"Ġgoing":3041,"Ġwinning":3042,"Ġanti":3043,"Ġap":3044,"Ġpot":3045,"ĠTra":3046,"ĠFort":3047,"aby":3048,"ability":3049,"Ġdecision":3050,"Ġended":3051,"hens":3052,"Ġdeterm":3053,"gu":3054,"itor":3055,"Ġfailed":3056,"ĠSun":3057,"ĠHel":3058,"Ġwriter":3059,"Ġaccording":3060,"Ġindepend":3061,"Ġnearly":3062,"rang":3063,"atives":3064,"Ġtouch":3065,"ĠTech":3066,"ĠCong":3067,"ĠMal":3068,"olic":3069,"ĠFe":3070,"ĠNero":3071,"ĠAfrica":3072,"gl":3073,"ks":3074,"Ġsect":3075,"ecially":3076,"ĠFilm":3077,"ĠIndia":3078,"Ġgoals":3079,"Ġshows":3080,"Ġcomplete":3081,"Ġphys":3082,"Ġlanguage":3083,"Ġaut":3084,"Ġmight":3085,"ĠSquadron":3086,"Ġlower":3087,"Ġscore":3088,"ĠCharles":3089,"Ġintroduced":3090,"Ã³":3091,"onse":3092,"Ġfut":3093,"ĠPet":3094,"uments":3095,"Ġremain":3096,"Ġfeel":3097,"ĠAssoci":3098,"of":3099,"Ġtow":3100,"illery":3101,"Ġrecording":3102,"Ġdepict":3103,"Ġrunning":3104,"Ġcaptured":3105,"den":3106,"Ġ?":3107,"ĠCard":3108,"ĠCamp":3109,"ĠMont":3110,"ĠPeter":3111,"ĠOt":3112,"Ġspent":3113,"Ġleague":3114,"ĠVict":3115,"rics":3116,"Ġ80":3117,"ronic":3118,"Ġminor":3119,"ĠSpanish":3120,"ĠGermany":3121,"Ġeduc":3122,"ĠBrown":3123,"aughter":3124,"Ġprior":3125,"Ġespecially":3126,"iest":3127,"lor":3128,"ĠMany":3129,"idents":3130,"ĠPat":3131,"ests":3132,"Ġsupported":3133,"Ġapproximately":3134,"Ġdestroyed":3135,"Ġlimited":3136,"ĠIrish":3137,"ga":3138,"aring":3139,"ĠSing":3140,"Ġchap":3141,"ĠVar":3142,"Ġintended":3143,"Ġgroups":3144,"Ġissue":3145,"ĠHistory":3146,"ĠWhe":3147,"Ġ1980":3148,"Ġmur":3149,"Ġdivision":3150,"Ġnetwork":3151,"ĠMil":3152,"odies":3153,"Ġdeal":3154,"quare":3155,"Ġimm":3156,"Ġreviews":3157,"Ġdiscovered":3158,"Ġfleet":3159,"ĠMos":3160,"raw":3161,"Ġkil":3162,"rying":3163,"Ġresponse":3164,"Ġreveal":3165,"Ġsat":3166,"Ġdoc":3167,"ĠAwards":3168,"Ġstaff":3169,"Ġincludes":3170,"Ġsometimes":3171,"inct":3172,"reak":3173,"Ġscreen":3174,"Ġoffice":3175,"inent":3176,"Ġfood":3177,"ils":3178,"ĠNort":3179,"ĠStud":3180,"Ġ184":3181,"Ġpositive":3182,"Ġlarger":3183,"Ġruns":3184,"Ġarchae":3185,"ĠCanadian":3186,"Ġchanges":3187,"rief":3188,"Ġcertain":3189,"ises":3190,"Ġinn":3191,"ĠTur":3192,"ĠWestern":3193,"ĠAnother":3194,"orning":3195,"Ġadditional":3196,"Ġmagazine":3197,"Ġagreed":3198,"fect":3199,"Ġri":3200,"Ġmale":3201,"Ġhapp":3202,"ĠCoun":3203,"order":3204,"ĠColle":3205,"Ġmixed":3206,"back":3207,"ha":3208,"uing":3209,"Ġsch":3210,"ĠCour":3211,"ishop":3212,"ples":3213,"Ġscript":3214,"Ġprovide":3215,"ĠOldham":3216,"Ġfighting":3217,"Ġche":3218,"anies":3219,"ĠSoc":3220,"ĠPri":3221,"Ġexam":3222,"quarters":3223,"Ġjourn":3224,"Ġsocial":3225,"Ġsem":3226,"Ġfail":3227,"ication":3228,"Ġdomin":3229,"ads":3230,"ĠJe":3231,"Ġmostly":3232,"ires":3233,"lymp":3234,"Ġfeature":3235,"ĠFrank":3236,"edy":3237,"lex":3238,"ĠBur":3239,"ĠHurricane":3240,"Ġdeep":3241,"hedral":3242,"Ġusually":3243,"Ġpositions":3244,"anna":3245,"Ġforest":3246,"Ġfrequ":3247,"Ġpressure":3248,"ĠOlymp":3249,"Ġuns":3250,"Ġpair":3251,"Ġmention":3252,"change":3253,"Ġcompl":3254,"Ġamount":3255,"ĠIII":3256,"Ġtype":3257,"iser":3258,"Ġbomb":3259,"irt":3260,"igan":3261,"ĠHot":3262,"ĠRad":3263,"ĠLaw":3264,"ĠInter":3265,"oke":3266,"Ġadop":3267,"Ġminutes":3268,"Ġguitar":3269,"fact":3270,"Ġens":3271,"atively":3272,"ĠServ":3273,"stant":3274,"iring":3275,"ĠOver":3276,"ĠUK":3277,"Ġ1999":3278,"Ġcarried":3279,"Ġradio":3280,"osaurus":3281,"Ġbecoming":3282,"Ġfuture":3283,"Ġsil":3284,"umn":3285,"Ġshown":3286,"ĠChina":3287,"Ġunc":3288,"teen":3289,"Ġ70":3290,"Ġsmaller":3291,"Ġdefeat":3292,"Ġsubsequently":3293,"isions":3294,"ĠVer":3295,"ospital":3296,"ĠOlivier":3297,"bers":3298,"Ġword":3299,"ĠTV":3300,"ĠTer":3301,"ĠSince":3302,"Ġconclud":3303,"ills":3304,"Ġcontem":3305,"Ġpresident":3306,"Ġfavor":3307,"Ġlikely":3308,"mon":3309,"mond":3310,"under":3311,"asy":3312,"enty":3313,"ĠJin":3314,"ĠEver":3315,"ĠStar":3316,"Ġadapt":3317,"Ġ1995":3318,"Ġteams":3319,"Ġcounter":3320,"NA":3321,"het":3322,"itte":3323,"ĠMart":3324,"Ġvot":3325,"Ġpercent":3326,"ĠAnt":3327,"oys":3328,"Ġreferred":3329,"ĠJewish":3330,"Ġquickly":3331,"uals":3332,"Ġtons":3333,"Ġwoman":3334,"ady":3335,"aded":3336,"ĠBack":3337,"Ġstay":3338,"ĠRes":3339,"ĠDan":3340,"Ġ32":3341,"Ġund":3342,"Ġquest":3343,"Ġentered":3344,"Ġlocation":3345,"Ġproblems":3346,"ror":3347,"onna":3348,"Ġwound":3349,"oud":3350,"ĠCath":3351,"omm":3352,"ĠBen":3353,"ĠRac":3354,"cean":3355,"ands":3356,"ĠOff":3357,"peror":3358,"ĠGuitar":3359,"ĠVictor":3360,"ios":3361,"Ġinters":3362,"Ġder":3363,"Ġlo":3364,"ĠPenn":3365,"Ġnotes":3366,"Ġtemper":3367,"Ġranked":3368,"Ġfifth":3369,"ĠBillboard":3370,"ĠAssociation":3371,"Ġbirth":3372,"imum":3373,"unt":3374,"Ġ400":3375,"Ġappl":3376,"Ġprofessional":3377,"gen":3378,"gely":3379,"Ġflow":3380,"Ġbrief":3381,"Ġstra":3382,"rael":3383,"Ġrelated":3384,"ĠSecond":3385,"Ġkeep":3386,"Ġsurface":3387,"dle":3388,"Ġdi":3389,"ĠTropical":3390,"imate":3391,"iforn":3392,"Ġsea":3393,"Ġleaving":3394,"Ġunit":3395,"Ġmoving":3396,"Ġindic":3397,"Ġconcern":3398,"ĠForce":3399,"Ġmedia":3400,"well":3401,"Ġself":3402,"usp":3403,"Ġ33":3404,"Ġ90":3405,"Ġamb":3406,"Ġofficers":3407,"ĠManila":3408,"Ġmajority":3409,"Ġconstructed":3410,"ny":3411,"Ġthick":3412,"Ġenv":3413,"Ġconsist":3414,"Ġstudents":3415,"Ġminute":3416,"Ġcomplex":3417,"Ġconcert":3418,"Ġvisit":3419,"Ġidea":3420,"Ġsuffered":3421,"Ġlaunched":3422,"gar":3423,"hy":3424,"rat":3425,"ses":3426,"anced":3427,"andon":3428,"Ġattacked":3429,"Ġrapid":3430,"ĠTour":3431,"ĠSur":3432,"Ġshoot":3433,"ĠItal":3434,"Ġthemsel":3435,"Ġassigned":3436,"Ġ1950":3437,"Ġprimary":3438,"ĠVirgin":3439,"Ġthemselves":3440,"Ġmakes":3441,"Ġalways":3442,"ĠLight":3443,"ĠLatin":3444,"Ġoverall":3445,"Ġlargely":3446,"Ġartillery":3447,"Ġdiscuss":3448,"Ġeffects":3449,"ĠCaliforn":3450,"ners":3451,"Ġult":3452,"era":3453,"ĠHead":3454,"ĠIsrael":3455,"Ġspeed":3456,"Ġsummer":3457,"ĠJer":3458,"Ġlearn":3459,"Ġfilms":3460,"Ġcreate":3461,"ĠCentral":3462,"Ġoccurred":3463,"Ġcele":3464,"ĠCouncil":3465,"Ġcm":3466,"ĠTre":3467,"Ġrein":3468,"ĠSam":3469,"Ġlink":3470,"ĠMr":3471,"ĠHow":3472,"Ġran":3473,"Ġcontains":3474,"Ġ1998":3475,"Ġcann":3476,"Ġconsider":3477,"arent":3478,"Ġlyrics":3479,"Ġcer":3480,"alled":3481,"Ġattract":3482,"Ġproduct":3483,"Ġlonger":3484,"Ġcritical":3485,"Ġattacks":3486,"hou":3487,"vens":3488,"Ġcred":3489,"Ġdark":3490,"Ġemer":3491,"aches":3492,"thing":3493,"ulpt":3494,"ĠWood":3495,"ĠJose":3496,"Ġ300":3497,"ĠArch":3498,"Ġtraffic":3499,"ĠBrad":3500,"Ġinvestig":3501,"ĠWheeler":3502,"Ġfans":3503,"ĠUp":3504,"ĠStorm":3505,"Ġimage":3506,"Ġmeth":3507,"Ġslight":3508,"Ġbroadcast":3509,"rown":3510,"Ġlived":3511,"ĠMajor":3512,"Ġdeg":3513,"lands":3514,"Ġmovement":3515,"Ġmusical":3516,"Ġ1940":3517,"Ġappears":3518,"Ġcontroll":3519,"Ġincrease":3520,"Ġstatus":3521,"ĠCroat":3522,"Ġkilomet":3523,"Ġschol":3524,"Ġlab":3525,"ĠDem":3526,"Ġabandon":3527,"Ġjob":3528,"Ġ2016":3529,"Ġprem":3530,"Ġcommission":3531,"undred":3532,"Ġconflict":3533,"Ġexperience":3534,"Ġproposed":3535,"Ġcasual":3536,"Ġasked":3537,"ĠCalifornia":3538,"RA":3539,"Ġpurch":3540,"Ġdoll":3541,"Ġscenes":3542,"Ġsculpt":3543,"Ġaccess":3544,"Ġmoney":3545,"itting":3546,"lin":3547,"Ġtar":3548,"ani":3549,"imb":3550,"ĠHaw":3551,"Ġvoice":3552,"Ġjud":3553,"ĠSever":3554,"Ġforms":3555,"Ġelection":3556,"Ġgrant":3557,"Ġlisted":3558,"ex":3559,"zy":3560,"inated":3561,"Ġbow":3562,"ĠFore":3563,"riage":3564,"arts":3565,"Ġbelow":3566,"Ġcommander":3567,"Ġrequest":3568,"incip":3569,"Ġinfluence":3570,"Ġobserv":3571,"Ġremoved":3572,"mas":3573,"ĠCamb":3574,"ĠRoss":3575,"cend":3576,"eway":3577,"ously":3578,"Ġparty":3579,"Ġcentre":3580,"ĠCommission":3581,"Ġbring":3582,"Ġ1930":3583,"ĠStevens":3584,"Ġassociated":3585,"ken":3586,"erve":3587,"ergy":3588,"eding":3589,"Ġcle":3590,"Ġdram":3591,"Ġreach":3592,"ĠSov":3593,"Ġnature":3594,"ĠRA":3595,"ĠDist":3596,"Ġconcept":3597,"Ġending":3598,"Ġmeant":3599,"Ġnumbers":3600,"Ġacqu":3601,"Ġdaughter":3602,"ĠRob":3603,"ander":3604,"Ġplanned":3605,"Ġserious":3606,"Ġcyclone":3607,"ĠNorthern":3608,"Ġbound":3609,"Ġmom":3610,"Ġded":3611,"ĠFI":3612,"ulu":3613,"Ġleave":3614,"ruit":3615,"Ġdism":3616,"Ġearth":3617,"Ġterms":3618,"ĠEarth":3619,"ĠMichigan":3620,"Ġchanged":3621,"ĠAfrican":3622,"Ġprivate":3623,"ĠRachel":3624,"awn":3625,"ging":3626,"Ġthus":3627,"Ġlif":3628,"ĠBu":3629,"ĠLake":3630,"umed":3631,"Ġunderst":3632,"ĠAtt":3633,"Ġsusp":3634,"Ġbad":3635,"Ġmorning":3636,"ĠArab":3637,"Ġstone":3638,"ĠLou":3639,"Ġplat":3640,"Ġplot":3641,"Ġupper":3642,"ylv":3643,"Ġperformances":3644,"Ġpersonal":3645,"Ġawarded":3646,"Ġbirds":3647,"ĠCourt":3648,"II":3649,"lo":3650,"itation":3651,"itect":3652,"ĠSal":3653,"Ġgot":3654,"Ġplans":3655,"Ġunable":3656,"Ġwhether":3657,"Ġtrade":3658,"Ġrare":3659,"Ġbuildings":3660,"ĠTex":3661,"Ġdouble":3662,"atre":3663,"Ġlay":3664,"ĠBC":3665,"ĠIf":3666,"ĠRose":3667,"Ġconver":3668,"ria":3669,"ify":3670,"Ġchall":3671,"Ġflight":3672,"Ġoperation":3673,"Ġfinally":3674,"Ġculture":3675,"Ġresearch":3676,"tr":3677,"Ġtell":3678,"Ġnatural":3679,"irl":3680,"ĠDo":3681,"ĠDel":3682,"aven":3683,"iano":3684,"ellig":3685,"Ġweap":3686,"hips":3687,"Ġrecords":3688,"Ġinfantry":3689,"ĠCenter":3690,"Ġfocus":3691,"Ġconducted":3692,"ittee":3693,"ĠHu":3694,"Ġasp":3695,"ĠJim":3696,"ortun":3697,"Ġcompared":3698,"ĠThree":3699,"Ġsched":3700,"ails":3701,"Ġcollect":3702,"ĠClub":3703,"Ġissued":3704,"Ġcompetition":3705,"Ġcommented":3706,"Ġstrength":3707,"Ġmeaning":3708,"Ġtakes":3709,"Ġfell":3710,"ĠSen":3711,"Ġliving":3712,"ĠNic":3713,"ĠJane":3714,"ective":3715,"Ġyet":3716,"ĠChic":3717,"ĠIts":3718,"aily":3719,"aught":3720,"Ġaccomp":3721,"iant":3722,"Ġdig":3723,"ĠThrough":3724,"Ġtheme":3725,"Ġcovered":3726,"Ġmethod":3727,"iqu":3728,"ĠTay":3729,"Ġcoach":3730,"Ġpresence":3731,"venue":3732,"Ġpolic":3733,"Ġprevent":3734,"Ġlog":3735,"ĠBow":3736,"ĠForm":3737,"ifa":3738,"Ġ37":3739,"Ġ42":3740,"Ġnewsp":3741,"Ġraised":3742,"Ġepisodes":3743,"Ġadvance":3744,"Ġbattles":3745,"Ġattempted":3746,"Ġfigure":3747,"Ġindustry":3748,"bury":3749,"sen":3750,"Ġtalk":3751,"ening":3752,"Ġbatter":3753,"ĠTrans":3754,"ili":3755,"usband":3756,"Ġhealth":3757,"Ġoffered":3758,"ologist":3759,"ĠMuseum":3760,"Ġnortheast":3761,"Ġresponsible":3762,"car":3763,"enon":3764,"Ġdone":3765,"ĠTw":3766,"ado":3767,"ĠBob":3768,"istics":3769,"rial":3770,"ĠEmp":3771,"Ġcompanies":3772,"Ġwhole":3773,"Ġearned":3774,"Ġ1993":3775,"ĠEnter":3776,"Ġmarked":3777,"Ġexperi":3778,"ĠPortug":3779,"Ġimmediately":3780,"ĠCollege":3781,"oir":3782,"tain":3783,"Ġour":3784,"Ġbig":3785,"Ġtourn":3786,"Ġgiving":3787,"ĠHo":3788,"ĠGo":3789,"Ġvia":3790,"ocr":3791,"Ġweaken":3792,"Ġmatches":3793,"ĠParliament":3794,"Ġschools":3795,"Ġera":3796,"ĠPhilipp":3797,"emorial":3798,"Ġmurder":3799,"ĠTexas":3800,"ras":3801,"itude":3802,"Ġpark":3803,"ĠBoth":3804,"Ġstories":3805,"ĠJust":3806,"Ġselected":3807,"Ġ39":3808,"Ġprep":3809,"Ġdirectly":3810,"ipped":3811,"Ġhelped":3812,"Ġ+":3813,"Ġsal":3814,"alys":3815,"Ġpurs":3816,"Ġ47":3817,"Ġ1996":3818,"Ġstarting":3819,"Ġphot":3820,"ĠHaifa":3821,"Ġbegins":3822,"ĠCorps":3823,"ĠChicago":3824,"bar":3825,"Ġhundred":3826,"ĠSar":3827,"Ġcomposed":3828,"Ġ1997":3829,"embly":3830,"onym":3831,"Ġmarried":3832,"Ġindividual":3833,"ĠAcad":3834,"Ġmachine":3835,"ĠTaylor":3836,"kan":3837,"vement":3838,"Ġpay":3839,"ĠCross":3840,"ĠBey":3841,"etic":3842,"olk":3843,"ows":3844,"ĠNor":3845,"Ġuses":3846,"Ġnearby":3847,"ĠAdm":3848,"Ġtraditional":3849,"ĠDepartment":3850,"Ġgreater":3851,"ĠCatholic":3852,"ĠSeveral":3853,"CA":3854,"Ġcause":3855,"Ġhop":3856,"Ġrear":3857,"Ġreally":3858,"ada":3859,"etr":3860,"ĠFoot":3861,"rain":3862,"Ġkind":3863,"ports":3864,"ĠSea":3865,"Ġbattalion":3866,"ĠChristmas":3867,"Ġwaters":3868,"Ġbox":3869,"Ġreject":3870,"Ġnecess":3871,"ĠBig":3872,"Ġclosed":3873,"Ġevac":3874,"Ġcontinue":3875,"Ã¡n":3876,"ĠOperation":3877,"Ġox":3878,"isl":3879,"Ġhour":3880,"Ġhighly":3881,"Ġannual":3882,"Ġmarket":3883,"MS":3884,"can":3885,"isation":3886,"Ġmor":3887,"ĠSol":3888,"Ġthrow":3889,"Ġnorm":3890,"berg":3891,"Ġrecover":3892,"Ġshell":3893,"rowd":3894,"Ġleaders":3895,"ype":3896,"Ġinside":3897,"Ġfinanc":3898,"Ġinitial":3899,"ĠSeries":3900,"stitute":3901,"Ġcasualties":3902,"ev":3903,"Ġtax":3904,"hew":3905,"ĠCer":3906,"Ġgraph":3907,"iva":3908,"agon":3909,"ĠOut":3910,"ondyl":3911,"ibly":3912,"Ġassault":3913,"ĠScot":3914,"Ġartist":3915,"Ġimpact":3916,"Ġresulted":3917,"orpor":3918,"Ġgreatest":3919,"Ġnucle":3920,"ĠGalvest":3921,"ĠGalveston":3922,"onc":3923,"ican":3924,"ĠTurn":3925,"ether":3926,"Ġ1991":3927,"Ġ150":3928,"Ġcourse":3929,"Ġsituation":3930,"ĠService":3931,"ĠItalian":3932,"ien":3933,"edo":3934,"Ġdom":3935,"Ġdyn":3936,"ĠIll":3937,"olf":3938,"ĠLos":3939,"aped":3940,"Ġdefend":3941,"Ġspecific":3942,"Ġmetal":3943,"Ġdrum":3944,"Ġmiddle":3945,"ĠGeorg":3946,"ares":3947,"like":3948,"Ġess":3949,"Ġsout":3950,"Ġpil":3951,"Ġhot":3952,"ĠSaint":3953,"uries":3954,"Ġdeploy":3955,"Ġsecret":3956,"Ġcontrovers":3957,"Ġbooks":3958,"Ġattempts":3959,"ospondyl":3960,"Ġgods":3961,"Ġfigures":3962,"Ġinspired":3963,"Ġinformation":3964,"Ġtouchdown":3965,"Ã³n":3966,"TV":3967,"pool":3968,"Ġsides":3969,"atops":3970,"isk":3971,"icle":3972,"ĠTenn":3973,"ĠSix":3974,"Ġthings":3975,"ĠHum":3976,"Ġsev":3977,"anta":3978,"Ġactive":3979,"Ġheadquarters":3980,"Ġextended":3981,"Ġservices":3982,"Ġallowing":3983,"Ġtracks":3984,"Ġboats":3985,"ĠCharl":3986,"Ġstandard":3987,"Ġsomething":3988,"lers":3989,"Ġx":3990,"Ġfeder":3991,"Ġpick":3992,"ĠAI":3993,"ĠAre":3994,"Ġnaval":3995,"ctor":3996,"ĠJam":3997,"Ġadvant":3998,"Ġpowerful":3999,"Ġaudience":4000,"ĠParty":4001,"light":4002,"rey":4003,"Ġpath":4004,"adium":4005,"ims":4006,"Ġstating":4007,"ĠLong":4008,"Ġsearch":4009,"ĠVilla":4010,"rane":4011,"Ġenj":4012,"Ġ65":4013,"Ġ1994":4014,"Ġnumerous":4015,"Ġvers":4016,"Ġrefused":4017,"Ġapproach":4018,"ĠJackson":4019,"Ġneeded":4020,"Ġvocals":4021,"Ġstruck":4022,"ĠCarolina":4023,"uit":4024,"Ġast":4025,"Ġwalk":4026,"itch":4027,"Ġmax":4028,"ĠLady":4029,"agan":4030,"aging":4031,"Ġheads":4032,"Ġlands":4033,"Ġconfir":4034,"Ġheavily":4035,"ĠSoviet":4036,"een":4037,"rid":4038,"vin":4039,"ĠCrit":4040,"ĠMill":4041,"ĠBec":4042,"Ġrate":4043,"Ġrule":4044,"Ġroom":4045,"Ġ180":4046,"izing":4047,"ĠAlice":4048,"Ġblood":4049,"Ġintensity":4050,"Ġmultip":4051,"ĠOtt":4052,"Ġcontemporary":4053,"ĠEmpire":4054,"Ġbodies":4055,"roll":4056,"ĠTheir":4057,"ĠLive":4058,"ĠGroup":4059,"ĠEr":4060,"Ġ51":4061,"Ġvariety":4062,"Ġcombat":4063,"Ġgenus":4064,"Ġconditions":4065,"Ġmeeting":4066,"Ġseparate":4067,"ĠSmith":4068,"Ġpurp":4069,"ĠJoseph":4070,"Ġtask":4071,"eds":4072,"ĠAlex":4073,"ams":4074,"Ġpeace":4075,"Ġtransl":4076,"ĠConf":4077,"ĠSpec":4078,"chester":4079,"house":4080,"Ġcrowd":4081,"Ġhusband":4082,"iles":4083,"ĠFin":4084,"ĠNix":4085,"Ġplant":4086,"ecting":4087,"Ġ76":4088,"ĠPolish":4089,"Ġhigher":4090,"ĠHighway":4091,"Ġdeclared":4092,"Ġpeaked":4093,"Ġsource":4094,"Ġhouses":4095,"Ġeducation":4096,"Ġslightly":4097,"ylvania":4098,"ees":4099,"ĠMey":4100,"ĠMidd":4101,"ols":4102,"ushed":4103,"ĠFour":4104,"ĠLo":4105,"perial":4106,"Ġproducer":4107,"Ġpresented":4108,"Ġhands":4109,"Ġreduced":4110,"Ġrespectively":4111,"uated":4112,"yph":4113,"Ġple":4114,"icip":4115,"ĠCivil":4116,"omer":4117,"Ġnative":4118,"ĠPost":4119,"ĠDj":4120,"ĠNations":4121,"ĠLiver":4122,"odon":4123,"ĠKn":4124,"Ġresidents":4125,"Ġ44":4126,"ribution":4127,"Ġsecurity":4128,"Ġ1992":4129,"Ġstudies":4130,"Ġextre":4131,"Ġofficer":4132,"Ġsixth":4133,"Ġcollection":4134,"ĠPenns":4135,"Ġcelebr":4136,"ka":4137,"iny":4138,"anas":4139,"Ġthr":4140,"Ġhero":4141,"ĠLittle":4142,"ĠCont":4143,"Ġconstit":4144,"Ġfriends":4145,"arrow":4146,"rol":4147,"ĠSir":4148,"ĠCast":4149,"ĠCapt":4150,"ĠBurn":4151,"ĠFinal":4152,"ĠWash":4153,"Ġchampionship":4154,"Ġspace":4155,"rance":4156,"irection":4157,"ension":4158,"ĠYoung":4159,"Ġprec":4160,"Ġprincip":4161,"Ġnorthwest":4162,"arents":4163,"Ġcompletely":4164,"Ġwounded":4165,"bon":4166,"Åį":4167,"Ġsaf":4168,"ĠTime":4169,"Ġgrand":4170,"iral":4171,"Ġbeat":4172,"estival":4173,"pted":4174,"ĠAlkan":4175,"Ġtext":4176,"athan":4177,"Ġmeans":4178,"Ġwriters":4179,"ĠRev":4180,"ĠCommon":4181,"ĠChris":4182,"Ġbridge":4183,"Ġcombined":4184,"Ġactivity":4185,"ĠSomers":4186,"Ġeye":4187,"Ġintern":4188,"ĠFam":4189,"ĠLand":4190,"oses":4191,"andid":4192,"illed":4193,"Ġ34":4194,"Ġdisplay":4195,"Ġsinger":4196,"Ġcontinues":4197,"Ġrespond":4198,"Ġdistance":4199,"Ġcountries":4200,"ĠDef":4201,"Ġmarriage":4202,"Ġarchitect":4203,"Ġadminist":4204,"Ġcopies":4205,"Ġcontrast":4206,"ĠLiverpool":4207,"ket":4208,"Ġir":4209,"alist":4210,"oura":4211,"ĠBet":4212,"tered":4213,"ĠGames":4214,"ift":4215,"ogue":4216,"Ġ48":4217,"Ġdisapp":4218,"Ġsymb":4219,"Ġexpected":4220,"ĠParis":4221,"orpedo":4222,"ĠSomal":4223,"Ġveh":4224,"ĠVirginia":4225,"Ġreinfor":4226,"ĠFootball":4227,"ĠNixon":4228,"ĠWashington":4229,"Ġcam":4230,"Ġborder":4231,"Ġdraft":4232,"stone":4233,"emic":4234,"Ġsust":4235,"Ġdispl":4236,"Ġinteract":4237,"Ġinches":4238,"ĠIndepend":4239,"Ġissues":4240,"Ġlevels":4241,"Ġwidely":4242,"ĠHistor":4243,"Ġtransferred":4244,"ĠBusch":4245,"Ġconcluded":4246,"track":4247,"ĠSomerset":4248,"ware":4249,"inth":4250,"Ġpow":4251,"ĠSouthern":4252,"ĠCor":4253,"ĠCons":4254,"ĠBre":4255,"ĠBook":4256,"ĠWater":4257,"ĠJul":4258,"Ġang":4259,"Ġrelief":4260,"Ġactually":4261,"ĠAustralians":4262,"Ġcathedral":4263,"Ġactivities":4264,"Ġstrike":4265,"Ġterritory":4266,"ĠPennsylvania":4267,"iated":4268,"Ġbene":4269,"ems":4270,"ĠFow":4271,"ĠLock":4272,"umber":4273,"ĠSpain":4274,"Ġefforts":4275,"Ġboard":4276,"while":4277,"ĠQueen":4278,"ĠMosley":4279,"Ġenjoy":4280,"lam":4281,"Ã¼":4282,"Ġtoward":4283,"iled":4284,"ĠCat":4285,"ĠDes":4286,"ulations":4287,"ĠGreen":4288,"ĠJos":4289,"ĠEs":4290,"asty":4291,"Ġactions":4292,"Ġsuppl":4293,"annel":4294,"Ġdescribes":4295,"ĠColon":4296,"Ġeffort":4297,"Ġelev":4298,"ĠFranc":4299,"Ġsexual":4300,"Ġwithdraw":4301,"Ġancient":4302,"ĠLouis":4303,"bour":4304,"ij":4305,"ufact":4306,"Ġrough":4307,"Ġtorpedo":4308,"inus":4309,"onic":4310,"isher":4311,"anz":4312,"anes":4313,"Ġinh":4314,"Ġpun":4315,"Ġreign":4316,"ĠDam":4317,"ĠNaz":4318,"ĠLi":4319,"ĠLike":4320,"anded":4321,"bery":4322,"Ġexhib":4323,"Ġadult":4324,"ibr":4325,"Ġmanaged":4326,"Ġoffensive":4327,"Ġattention":4328,"ocks":4329,"Ġqual":4330,"Ġbackground":4331,"Ġ1942":4332,"Ġironcl":4333,"Ġrainfall":4334,"Ġrevealed":4335,"mark":4336,"Ġtur":4337,"Ġtoday":4338,"Ġmission":4339,"oured":4340,"irit":4341,"utch":4342,"ĠDer":4343,"ersh":4344,"ĠInn":4345,"Ġ49":4346,"Ġ52":4347,"Ġ182":4348,"ĠArm":4349,"Ġdefense":4350,"Ġblue":4351,"iami":4352,"Ġdistinct":4353,"Ġcounty":4354,"Ġresulting":4355,"Ġrights":4356,"Ġprimarily":4357,"Ġbecomes":4358,"Ġaccepted":4359,"Ġsequence":4360,"ĠVietnam":4361,"hood":4362,"tation":4363,"yr":4364,"Ġsays":4365,"Ġmel":4366,"Ġhabit":4367,"ĠTri":4368,"idian":4369,"imony":4370,"Ġmainly":4371,"Ġalongside":4372,"Ġdesignated":4373,"Ġopportun":4374,"Ġmountain":4375,"ĠGovernment":4376,"ĠBecause":4377,"Ġsquadron":4378,"Ġsquare":4379,"Ġfaced":4380,"ĠBon":4381,"usion":4382,"Ġkick":4383,"Ġrecent":4384,"Ġ181":4385,"Ġdise":4386,"ampion":4387,"ĠClass":4388,"Ġconcent":4389,"Ġdemonst":4390,"Ġpattern":4391,"Ġtrees":4392,"ĠKorean":4393,"ĠFowler":4394,"cy":4395,"Ġwear":4396,"Ġpound":4397,"room":4398,"ĠMiami":4399,"ĠFer":4400,"ĠWW":4401,"Ġprint":4402,"ledge":4403,"Ġfeaturing":4404,"Ġappearances":4405,"ĠAdd":4406,"Ġprogress":4407,"ĠMinnes":4408,"ĠAngeles":4409,"Ġquestion":4410,"ĠMinnesota":4411,"kin":4412,"enant":4413,"ingu":4414,"Ġpiano":4415,"Ġonto":4416,"ĠBol":4417,"use":4418,"ĠPen":4419,"Ġability":4420,"Ġroles":4421,"Ġjump":4422,"Ġ64":4423,"echan":4424,"Ġtrue":4425,"hold":4426,"itness":4427,"Ġcorn":4428,"Ġpaper":4429,"ĠTod":4430,"ela":4431,"acher":4432,"ĠKent":4433,"apo":4434,"Ġcompos":4435,"Ġ46":4436,"Ġplays":4437,"Ġdepart":4438,"Ġorganization":4439,"Ġcondoms":4440,"Ġfederal":4441,"bed":4442,"cle":4443,"Ġsense":4444,"ena":4445,"Ġbott":4446,"Ġparents":4447,"adm":4448,"Ġaltern":4449,"ĠOf":4450,"Ġcoming":4451,"Ġvess":4452,"Ġyoun":4453,"Ġresc":4454,"Ġroy":4455,"Ġ55":4456,"Ġrecomm":4457,"Ġscoring":4458,"Ġseasons":4459,"Ġquality":4460,"Ġcalling":4461,"Ġshowed":4462,"ĠManchester":4463,"Ġportion":4464,"shire":4465,"Ġobserved":4466,"ceeded":4467,"Ġpractice":4468,"ĠAcademy":4469,"ĠScotland":4470,"BA":4471,"ãĥ":4472,"Ġhol":4473,"Ġlot":4474,"ĠBint":4475,"Ġrhy":4476,"ĠAnn":4477,"Ġrelatively":4478,"airs":4479,"Ġinstit":4480,"ĠMean":4481,"Ġelected":4482,"ironment":4483,"Ġhistorical":4484,"yphoon":4485,"ĠBintulu":4486,"mun":4487,"Ġwords":4488,"Ġlosing":4489,"ĠRam":4490,"essa":4491,"Ġuniversity":4492,"Ġremark":4493,"ologists":4494,"ĠNews":4495,"Ġinvasion":4496,"Ġreception":4497,"Ġbrown":4498,"ervation":4499,"Ġowned":4500,"Ġ1920":4501,"Ġencoun":4502,"Ġstrugg":4503,"Ġultimately":4504,"cript":4505,"kn":4506,"ĠMog":4507,"ĠField":4508,"estic":4509,"Ġrang":4510,"Ġsuc":4511,"Ġarmed":4512,"Ġscale":4513,"Ġapparent":4514,"Ġ1941":4515,"Ġedge":4516,"ĠRussian":4517,"ĠSociety":4518,"ĠMeyer":4519,"ĠCaptain":4520,"gal":4521,"pole":4522,"Ġathlet":4523,"Ġfast":4524,"icles":4525,"ĠCap":4526,"Ġnation":4527,"ĠMat":4528,"ĠMass":4529,"ĠMatt":4530,"Ġheart":4531,"osen":4532,"ĠGar":4533,"udd":4534,"essions":4535,"Ġenemy":4536,"Ġdefence":4537,"Ġlegal":4538,"Ġtwenty":4539,"Ġinfluenced":4540,"ĠMeridian":4541,"Ġexcav":4542,"elligence":4543,"ĠBeyonc":4544,"ĠBeyoncÃ©":4545,"che":4546,"Ġfully":4547,"ications":4548,"Ġmile":4549,"ĠTik":4550,"Ġthous":4551,"ĠChe":4552,"Ġnarr":4553,"ĠDou":4554,"ĠUl":4555,"Ġspl":4556,"ĠThough":4557,"Ġagg":4558,"Ġoffer":4559,"Ġprepar":4560,"Ġexpressed":4561,"Ġinstr":4562,"ĠColumb":4563,"ĠAnderson":4564,"Ġtypically":4565,"ricket":4566,"Ġproteins":4567,"Ġsurrounding":4568,"Ġcannot":4569,"ĠHawai":4570,"town":4571,"onents":4572,"Ġchem":4573,"Ġmem":4574,"Ġmole":4575,"ĠSum":4576,"Ġnarrow":4577,"utions":4578,"Ġstep":4579,"ĠPit":4580,"oper":4581,"pping":4582,"Ġspread":4583,"Ġproduce":4584,"Ġprison":4585,"Ġsets":4586,"Ġemph":4587,"Ġportray":4588,"ĠChurchill":4589,"Ġrepresented":4590,"Ġmagn":4591,"Ġhomes":4592,"Ġdissip":4593,"uzz":4594,"Ġadopted":4595,"alysis":4596,"eption":4597,"the":4598,"Ġwing":4599,"ala":4600,"asc":4601,"road":4602,"acement":4603,"ĠPop":4604,"ĠFar":4605,"ĠWels":4606,"Ġcontact":4607,"orship":4608,"Ġemot":4609,"Ġ1986":4610,"Ġorganized":4611,"Ġlegisl":4612,"ĠRichmond":4613,"Ġreaction":4614,"ĠTemple":4615,"Ġadvantage":4616,"Ġmaximum":4617,"burg":4618,"gs":4619,"mes":4620,"ona":4621,"Ġsen":4622,"Ġinch":4623,"Ġdu":4624,"ĠHal":4625,"ends":4626,"Ġwebs":4627,"Ġneigh":4628,"ugby":4629,"Ġfloor":4630,"Ġartists":4631,"Ġextra":4632,"Ġbroken":4633,"Ġtried":4634,"ĠPrince":4635,"Ġofficials":4636,"Ġnuclear":4637,"admium":4638,"ĠWelsh":4639,"rical":4640,"Ġaid":4641,"Ġpal":4642,"ĠSil":4643,"ĠDirect":4644,"ĠGall":4645,"ĠOx":4646,"ĠOcean":4647,"Ġvo":4648,"astic":4649,"Ġmanufact":4650,"Ġthemes":4651,"ĠCommun":4652,"Ġedition":4653,"Ġreports":4654,"ĠAndrew":4655,"Ġpersonnel":4656,"Ġtypes":4657,"ĠWeek":4658,"Ġearliest":4659,"Ġpaint":4660,"mitted":4661,"ply":4662,"rong":4663,"enge":4664,"Ġmis":4665,"ĠHome":4666,"ĠRo":4667,"ĠKa":4668,"ĠThunder":4669,"ĠMarine":4670,"ĠBlue":4671,"Ġcapture":4672,"ĠOrig":4673,"Ġdivided":4674,"Ġsources":4675,"Ġhyd":4676,"ĠOpen":4677,"Ġtower":4678,"Ġabandoned":4679,"ĠDistrict":4680,"Ġfinancial":4681,"aen":4682,"lim":4683,"pre":4684,"rate":4685,"ux":4686,"writ":4687,"Ġsister":4688,"Ġwa":4689,"Ġmouth":4690,"Ġhorse":4691,"ĠAv":4692,"etts":4693,"Ġalone":4694,"issipp":4695,"Ġacting":4696,"Ġ1988":4697,"Ġmodel":4698,"ĠProt":4699,"Ġtitled":4700,"ĠMississipp":4701,"Ġsoundtrack":4702,"Ġachieved":4703,"ĠIllino":4704,"ĠTikal":4705,"Ġemphas":4706,"nospondyl":4707,"Ġsn":4708,"Ġdirection":4709,"ĠBoy":4710,"ĠBalt":4711,"Ġstopp":4712,"unction":4713,"ĠLie":4714,"izes":4715,"Ġactor":4716,"Ġspecim":4717,"Ġrepe":4718,"Ġprominent":4719,"Ġshortly":4720,"Ġviewers":4721,"ĠEdward":4722,"Ġaffected":4723,"ĠSecret":4724,"ĠTurk":4725,"ĠMiddle":4726,"Ġroyal":4727,"ĠMogad":4728,"wen":4729,"Ġthir":4730,"ĠFred":4731,"ĠFleet":4732,"acks":4733,"send":4734,"Ġdefensive":4735,"Ġmovie":4736,"Ġwrite":4737,"Ġfounded":4738,"Ġbasis":4739,"ĠRecords":4740,"ĠRhodes":4741,"Ġnewspaper":4742,"ĠMississippi":4743,"Ġcities":4744,"Ġcandid":4745,"alions":4746,"Ġmind":4747,"ĠAvenue":4748,"ura":4749,"ĠBall":4750,"Ġgirl":4751,"ĠNes":4752,"ĠKir":4753,"ograp":4754,"Ġ41":4755,"Ġattended":4756,"Ġweak":4757,"ĠArg":4758,"ĠReview":4759,"Ġdoing":4760,"ĠJohnson":4761,"Ġoperated":4762,"Ġstructures":4763,"ĠBraat":4764,"Ġflooding":4765,"Ġmentioned":4766,"Ġsac":4767,"Ġfruit":4768,"Ġpaid":4769,"Ġhospital":4770,"ette":4771,"ĠGib":4772,"ipment":4773,"claim":4774,"Ġofficially":4775,"Ġcouple":4776,"Ġpotential":4777,"Ġdedicated":4778,"Ġtournament":4779,"Ġxenon":4780,"known":4781,"bit":4782,"hu":4783,"uous":4784,"wide":4785,"orus":4786,"Ġmechan":4787,"irm":4788,"ĠWild":4789,"Ġcomedy":4790,"Ġplaces":4791,"Ġshape":4792,"ector":4793,"Ġyour":4794,"eller":4795,"Ġ43":4796,"anger":4797,"ĠEngine":4798,"prise":4799,"Ġauthorities":4800,"Ġcultural":4801,"ĠTurner":4802,"FA":4803,"bird":4804,"iro":4805,"ãģ":4806,"ora":4807,"Ġlives":4808,"ĠBh":4809,"ĠHMS":4810,"Ġproved":4811,"akapo":4812,"Ġarrest":4813,"Ġcompound":4814,"Ġperman":4815,"Ġscient":4816,"Ġconsisted":4817,"Ġbroke":4818,"inkel":4819,"Ġpassing":4820,"Ġtitles":4821,"Ġtrial":4822,"Ġbasket":4823,"ĠNicole":4824,"ĠMogadish":4825,"inem":4826,"Ġsens":4827,"edd":4828,"Ġmess":4829,"Ġlb":4830,"ĠMore":4831,"ĠBost":4832,"Ġrat":4833,"ĠInt":4834,"Ġroll":4835,"Ġ56":4836,"Ġappeal":4837,"athus":4838,"orney":4839,"Ġenter":4840,"fully":4841,"Ġ179":4842,"Ġoccasion":4843,"Ġcausing":4844,"Ġsociety":4845,"ĠTownsend":4846,"Ġpiece":4847,"ĠRosebery":4848,"ĠMeyerbe":4849,"VD":4850,"right":4851,"inary":4852,"rect":4853,"Ġsales":4854,"Ġoil":4855,"alle":4856,"Ġhun":4857,"lection":4858,"ĠCra":4859,"ĠBond":4860,"Ġgrew":4861,"ĠFurther":4862,"ĠWay":4863,"ĠLar":4864,"istry":4865,"ricult":4866,"Ġ93":4867,"Ġcolumn":4868,"ĠAmericans":4869,"Ġlanding":4870,"ĠClark":4871,"Ġolder":4872,"Äģd":4873,"Ġindividuals":4874,"Ġillust":4875,"ĠWalpole":4876,"Ġdetermined":4877,"Ġstraight":4878,"Ġweapons":4879,"ĠMogadishu":4880,"ĠMeyerbeer":4881,"Ġut":4882,"Ġtry":4883,"Ġcore":4884,"Ġpan":4885,"Ġdut":4886,"ĠMort":4887,"ĠRaj":4888,"ĠFinkel":4889,"resh":4890,"iana":4891,"Ġunivers":4892,"Ġimages":4893,"ĠYue":4894,"Ġincorpor":4895,"Ġseconds":4896,"aha":4897,"Ġletter":4898,"ĠApple":4899,"ĠFinkelstein":4900,"sy":4901,"inn":4902,"isters":4903,"Ġbank":4904,"ĠTessa":4905,"ĠMax":4906,"ĠHy":4907,"Ġsport":4908,"Ġunknown":4909,"Ġcontain":4910,"Ġadj":4911,"duction":4912,"Ġ97":4913,"Ġconsecutive":4914,"Ġformation":4915,"Ġmonument":4916,"ĠShort":4917,"ĠShiva":4918,"Ġ1985":4919,"Ġ1944":4920,"ancy":4921,"Ġpossibly":4922,"Ġorders":4923,"Ġprojects":4924,"Ġsites":4925,"Ġdoub":4926,"Ġphysical":4927,"Ġkilometres":4928,"Ġschedul":4929,"ĠOttoman":4930,"iti":4931,"Ġfired":4932,"Ġfiction":4933,"Ġhair":4934,"ĠSo":4935,"ĠMD":4936,"ĠHorn":4937,"Ġstop":4938,"Ġ53":4939,"Ġimag":4940,"Ġfollows":4941,"Ġleader":4942,"Ġsuggests":4943,"Ġcriticized":4944,"Ġrapidly":4945,"Ġcerem":4946,"gn":4947,"uff":4948,"Ġfrag":4949,"omy":4950,"ĠHorse":4951,"ĠDVD":4952,"ĠWat":4953,"abama":4954,"ĠAlabama":4955,"Ġworkers":4956,"Ġpoly":4957,"Ġflank":4958,"Ġ120":4959,"Ġclaims":4960,"Ġforeign":4961,"Ġkept":4962,"Ġidentified":4963,"Ġhonor":4964,"ĠPortugues":4965,"ĠMeanwhile":4966,"ĠIllinois":4967,"aith":4968,"uan":4969,"win":4970,"orter":4971,"Ġlaid":4972,"Ġgained":4973,"ĠDue":4974,"unte":4975,"ĠWrit":4976,"aine":4977,"ĠEastern":4978,"ĠOm":4979,"Ġseek":4980,"Ġchief":4981,"Ġrow":4982,"Ġsupply":4983,"Ġkilling":4984,"Ġrequire":4985,"Ġequipment":4986,"Ġmanagement":4987,"Ġprotein":4988,"ĠPhilippines":4989,"ĠBraathens":4990,"ĠPortuguese":4991,"uct":4992,"ãĤ":4993,"Ġahead":4994,"Ġwild":4995,"ĠTru":4996,"ĠBul":4997,"ĠBBC":4998,"antly":4999,"gend":5000,"Ġattend":5001,"Ġacad":5002,"Ġentrance":5003,"Ġ1964":5004,"Ġtemple":5005,"Ġbehav":5006,"fficient":5007,"ĠBackground":5008,"Ġdisease":5009,"bitt":5010,"Ġtim":5011,"Ġsought":5012,"ĠTim":5013,"Ġreaching":5014,"Ġhere":5015,"ĠRet":5016,"ĠGood":5017,"ighth":5018,"ĠStone":5019,"Ġyellow":5020,"Ġadvert":5021,"Ġenergy":5022,"ĠLeg":5023,"ĠBridge":5024,"ĠAssembly":5025,"Ġwalls":5026,"Ġsustained":5027,"born":5028,"more":5029,"Ġsand":5030,"Ġwor":5031,"Ġfought":5032,"ishes":5033,"Ġhors":5034,"ĠTint":5035,"adel":5036,"ĠDen":5037,"ĠFey":5038,"ĠGre":5039,"Ġspirit":5040,"ella":5041,"Ġ54":5042,"Ġ57":5043,"Ġ62":5044,"Ġweight":5045,"Ġnewly":5046,"Ġcharge":5047,"Ġlandfall":5048,"Ġgrass":5049,"Ġdebuted":5050,"arrison":5051,"ushing":5052,"Ġpieces":5053,"Ġenvironment":5054,"Ġtarget":5055,"Ġconfirmed":5056,"eg":5057,"Ġwars":5058,"asure":5059,"Ġmaster":5060,"ĠSat":5061,"ilies":5062,"Ġload":5063,"ĠMend":5064,"ĠFox":5065,"ĠLl":5066,"ĠLord":5067,"ĠEnd":5068,"ĠKar":5069,"Ġchosen":5070,"Ġexec":5071,"Ġspot":5072,"Ġsports":5073,"ĠVan":5074,"outs":5075,"Ġmuseum":5076,"Ġemperor":5077,"Ġ1987":5078,"Ġsimply":5079,"Ġwinter":5080,"ĠReception":5081,"Ġreference":5082,"Ġelim":5083,"Ġauthority":5084,"Ġpitched":5085,"Ġpromoted":5086,"Ġletters":5087,"Ġmeasure":5088,"ĠOlympic":5089,"Ġmoment":5090,"Ġdismiss":5091,"onymous":5092,"iate":5093,"mission":5094,"Ġrom":5095,"Ġtact":5096,"Ġmob":5097,"Ġdiam":5098,"ĠSub":5099,"ador":5100,"ĠPublic":5101,"Ġheight":5102,"Ġneut":5103,"Ġ95":5104,"Ġregions":5105,"Ġalbums":5106,"ĠUSA":5107,"Ġreturning":5108,"Ġpasses":5109,"Ġadvanced":5110,"ĠProv":5111,"Ġtwice":5112,"Ġcases":5113,"Ġfunction":5114,"Ġcondition":5115,"Ġburied":5116,"ĠValley":5117,"Ġgranted":5118,"Ġdomestic":5119,"aud":5120,"lings":5121,"uge":5122,"Ġtun":5123,"inet":5124,"Ġsay":5125,"Ġwave":5126,"ĠSarn":5127,"ĠMel":5128,"utenant":5129,"ĠEach":5130,"ĠZhou":5131,"ertain":5132,"ĠIndust":5133,"Ġbrigade":5134,"helm":5135,"heless":5136,"Ġvisited":5137,"Ġplanet":5138,"Ġfreeway":5139,"Ġseems":5140,"Ġinjury":5141,"Ġnominated":5142,"Ġdropped":5143,"Ġeconomic":5144,"Ġdocument":5145,"Ġplatform":5146,"ĠBoston":5147,"ef":5148,"iot":5149,"ya":5150,"rete":5151,"Ġsail":5152,"ĠAD":5153,"ental":5154,"ĠRos":5155,"ĠRome":5156,"ĠFre":5157,"ulate":5158,"ĠEven":5159,"Ġridge":5160,"Ġsend":5161,"ĠUN":5162,"Ġcontaining":5163,"ĠYank":5164,"Ġ600":5165,"Ġremix":5166,"Ġcolor":5167,"Ġtherefore":5168,"azz":5169,"Ġ1984":5170,"Ġstudent":5171,"Ġ1972":5172,"Ġdeliver":5173,"Ġpitcher":5174,"ĠMountain":5175,"urban":5176,"Ġgrowing":5177,"auty":5178,"Ġpoetry":5179,"Ġscholars":5180,"ĠForest":5181,"ĠTintin":5182,"Ã¨":5183,"Ġfear":5184,"Ġfix":5185,"Ġmort":5186,"ola":5187,"ĠNight":5188,"ĠLew":5189,"ĠGra":5190,"ĠGreek":5191,"ocated":5192,"Ġshare":5193,"Ġkg":5194,"ĠOnly":5195,"Ġweather":5196,"Ġactors":5197,"Ġdepth":5198,"Ġ1947":5199,"Ġresults":5200,"ĠBefore":5201,"Ġspeak":5202,"Ġmounted":5203,"Ġmaintained":5204,"Ġflying":5205,"ĠVaranas":5206,"Ġnecessary":5207,"ĠCeres":5208,"Ġmultiple":5209,"ĠAddition":5210,"ĠVaranasi":5211,"de":5212,"mosp":5213,"Ġhor":5214,"olved":5215,"ivity":5216,"ayer":5217,"resp":5218,"ovic":5219,"ipl":5220,"Ġcontent":5221,"Ġserve":5222,"ĠAsia":5223,"Ġfilmed":5224,"Ġopin":5225,"Ġstarts":5226,"Ġstanding":5227,"Ġhistorian":5228,"ĠEva":5229,"Ġlooking":5230,"Ġcouncil":5231,"Ġknowledge":5232,"Ġcurrently":5233,"ĠOdaen":5234,"Ġlabel":5235,"ĠNesbitt":5236,"ĠArgent":5237,"ao":5238,"bl":5239,"Ġbul":5240,"Ġboy":5241,"Ġpict":5242,"ĠMur":5243,"thur":5244,"Ġven":5245,"alls":5246,"ĠUs":5247,"Ġcompr":5248,"Ġ61":5249,"ĠAnth":5250,"Ġexped":5251,"Ġbelong":5252,"Ġguest":5253,"ĠDevelop":5254,"Ġphil":5255,"Ġboat":5256,"ĠTeam":5257,"ĠAmong":5258,"ĠWilliams":5259,"Ġreligion":5260,"Ġvocal":5261,"Ġproblem":5262,"Ġargued":5263,"ĠTorres":5264,"Ġindependent":5265,"Ġcontrolled":5266,"Ġversions":5267,"Ġwebsite":5268,"ĠOdaenathus":5269,"Mont":5270,"TC":5271,"Ġtank":5272,"Ġtanks":5273,"ider":5274,"ĠDream":5275,"ĠGord":5276,"ĠJup":5277,"ĠJourn":5278,"Ġspect":5279,"Ġ72":5280,"Ġassass":5281,"Ġ1989":5282,"Ġ1969":5283,"Ġsupporting":5284,"Ġelement":5285,"Ġsettlement":5286,"ĠDuMont":5287,"Ġanimal":5288,"ĠOffice":5289,"Ġrejected":5290,"ĠSarnia":5291,"ridge":5292,"iner":5293,"edar":5294,"Ġfolk":5295,"Ġham":5296,"enture":5297,"Ġnest":5298,"ĠIron":5299,"iments":5300,"ĠFant":5301,"ĠWork":5302,"ĠGulf":5303,"ĠJon":5304,"umes":5305,"agement":5306,"Ġseg":5307,"iance":5308,"ĠChild":5309,"Ġarrang":5310,"Ġnews":5311,"Ġretired":5312,"Ġwrites":5313,"ĠGuard":5314,"Ġexplained":5315,"Ġmedical":5316,"ĠPerÃ³n":5317,"Ġavoid":5318,"ĠExp":5319,"ĠPalest":5320,"Ġcollabor":5321,"ĠSlam":5322,"ĠPrem":5323,"Ġincreasingly":5324,"Ġtemperature":5325,"Ġfle":5326,"Ġbit":5327,"ĠBir":5328,"oted":5329,"ĠDest":5330,"ĠEll":5331,"Ġrival":5332,"ĠKey":5333,"Ġoverl":5334,"ĠOnce":5335,"Ġ96":5336,"insula":5337,"ĠConference":5338,"ĠConstant":5339,"ĠCarl":5340,"Ġ130":5341,"Ġreflect":5342,"ĠAirport":5343,"ĠMinister":5344,"Ġstrik":5345,"ĠEntertain":5346,"ĠOxford":5347,"ĠThunderbird":5348,"ographer":5349,"pass":5350,"ĠSR":5351,"ĠBan":5352,"Ġge":5353,"Ġrisk":5354,"Ġkakapo":5355,"Ġunique":5356,"Ġ73":5357,"Ġbattalions":5358,"Ġguard":5359,"ĠCongress":5360,"haps":5361,"Ġcadmium":5362,"arian":5363,"stream":5364,"add":5365,"ĠMod":5366,"imore":5367,"ote":5368,"ĠDar":5369,"ĠFA":5370,"Ġring":5371,"Ġresemb":5372,"Ġperfect":5373,"Ġscience":5374,"ĠAlbum":5375,"ĠItaly":5376,"awa":5377,"Ġconsp":5378,"Ġ81":5379,"Ġflag":5380,"Ġsetting":5381,"Ġsingles":5382,"ĠAllied":5383,"Ġprotest":5384,"ancing":5385,"Ġbelieve":5386,"ĠSystem":5387,"Ġconnected":5388,"Ġgrowth":5389,"Ġemployed":5390,"Ġsynt":5391,"ĠScottish":5392,"Ġfailure":5393,"Ġaccompan":5394,"Ġpolicy":5395,"ĠBowl":5396,"Ġweakened":5397,"Ġbasketball":5398,"Ġscheduled":5399,"ĠJupiter":5400,"cel":5401,"met":5402,"och":5403,"Ġáĥ":5404,"heastern":5405,"inity":5406,"Ġfung":5407,"Ġbass":5408,"ĠCa":5409,"ĠCole":5410,"ĠRog":5411,"ĠDom":5412,"ĠDutch":5413,"ĠNorm":5414,"oren":5415,"ĠVen":5416,"Ġherself":5417,"Ġcolony":5418,"Ġends":5419,"Ġsubmar":5420,"Ġincident":5421,"Ġmatter":5422,"Ġfamilies":5423,"Ġcampus":5424,"Ġideas":5425,"Ġentirely":5426,"Ġsubsequent":5427,"ĠHelms":5428,"ĠFamily":5429,"ĠOmaha":5430,"Station":5431,"bo":5432,"eed":5433,"onent":5434,"Ġcust":5435,"Ġdated":5436,"ĠSpr":5437,"ading":5438,"ĠLis":5439,"ifying":5440,"ĠInstitute":5441,"Ġunf":5442,"Ġcompar":5443,"Ġcontained":5444,"Ġcontributed":5445,"izations":5446,"Ġdescend":5447,"Ġ85":5448,"Ġsinging":5449,"Ġfamous":5450,"Ġbelief":5451,"Ġjoin":5452,"Ġsolo":5453,"Ġvalue":5454,"Ġcreating":5455,"Ġwooden":5456,"ĠPlayStation":5457,"ĠWilhelm":5458,"Ġparticipated":5459,"ĠVictoria":5460,"Ġsenior":5461,"oe":5462,"render":5463,"Ġwitness":5464,"itable":5465,"ĠAp":5466,"ĠSky":5467,"aming":5468,"ĠBas":5469,"ĠBishop":5470,"ĠDis":5471,"ĠLine":5472,"Ġanalysis":5473,"Ġrise":5474,"Ġchose":5475,"Ġchair":5476,"ĠStep":5477,"Ġ700":5478,"ocked":5479,"Ġ1981":5480,"Ġopposed":5481,"Ġsignificantly":5482,"Ġliterature":5483,"ĠJeff":5484,"Ġpremi":5485,"Ġbattery":5486,"Ġprepared":5487,"ĠAdmiral":5488,"Ġseventh":5489,"ĠInnis":5490,"Ġbottom":5491,"cers":5492,"eer":5493,"kare":5494,"load":5495,"upp":5496,"rot":5497,"ĠAst":5498,"ĠMong":5499,"ĠMike":5500,"uting":5501,"ĠPress":5502,"ĠRy":5503,"ĠGard":5504,"ĠStan":5505,"Ġunus":5506,"phia":5507,"ressive":5508,"Ġtemnospondyl":5509,"ĠImag":5510,"ĠMcCall":5511,"Ġanimals":5512,"clusion":5513,"Ġfrequently":5514,"Ġsoutheast":5515,"adelphia":5516,"ĠGordon":5517,"MA":5518,"sw":5519,"Ã¶":5520,"Ġaired":5521,"Ġawards":5522,"Ġswe":5523,"stead":5524,"ĠBart":5525,"ĠHart":5526,"ĠRif":5527,"ĠNever":5528,"Ġshaped":5529,"ips":5530,"usted":5531,"ĠChap":5532,"ĠVill":5533,"Ġroof":5534,"issance":5535,"Ġ800":5536,"Ġdefin":5537,"ashion":5538,"Ġdrive":5539,"Ġroads":5540,"Ġcommonly":5541,"Ġpopularity":5542,"ĠLester":5543,"Ġcollege":5544,"Ġlosses":5545,"Ġoccupied":5546,"ĠCardiff":5547,"Ġinnings":5548,"Ġunsu":5549,"ĠBaltimore":5550,"atus":5551,"Ġbud":5552,"Ġmist":5553,"Ġdress":5554,"ĠERA":5555,"aph":5556,"ansas":5557,"Ġtrav":5558,"ulls":5559,"ructure":5560,"Ġ1918":5561,"Ġsouthwest":5562,"Ġsystems":5563,"Ġparalle":5564,"Ġcriticism":5565,"Ġsuccessfully":5566,"ĠMorr":5567,"Ġrecognized":5568,"ĠEgyptian":5569,"Ġproperty":5570,"Ġexperienced":5571,"Ġsupplies":5572,"iable":5573,"jo":5574,"Äĩ":5575,"erts":5576,"Ġfresh":5577,"isers":5578,"Ġreform":5579,"ĠSund":5580,"ĠMov":5581,"lywood":5582,"ety":5583,"ĠRih":5584,"rait":5585,"Ġatmosp":5586,"ĠGi":5587,"ersey":5588,"Ġvirt":5589,"Ġrating":5590,"Ġspring":5591,"Ġagricult":5592,"Ġ98":5593,"Ġremn":5594,"Ġsevere":5595,"Ġminer":5596,"Ġpublication":5597,"Ġserving":5598,"Ġdeaths":5599,"Ġpainting":5600,"ĠImperial":5601,"Ġdeclined":5602,"Ġfacilities":5603,"ĠHamels":5604,"Ġbriefly":5605,"ĠDemocr":5606,"Ġpurchased":5607,"ĠRihanna":5608,"hat":5609,"rig":5610,"set":5611,"zo":5612,"Ġtheory":5613,"Ġselling":5614,"ato":5615,"Ġfict":5616,"Ġpet":5617,"Ġdim":5618,"Ġdates":5619,"ĠAM":5620,"Ġec":5621,"ĠMen":5622,"ĠMas":5623,"lys":5624,"Ġbey":5625,"unicip":5626,"ĠFive":5627,"Ġcomes":5628,"Ġchoice":5629,"Ġ59":5630,"Ġrecently":5631,"ĠAlso":5632,"aret":5633,"wealth":5634,"Ġteacher":5635,"Ġ77":5636,"Ġsecondary":5637,"Ġ1943":5638,"Ġdescription":5639,"Ġ1968":5640,"Ġextensive":5641,"Ġoccas":5642,"Ġeditor":5643,"Ġeffective":5644,"ĠMounted":5645,"Ġpoems":5646,"Ġtechnique":5647,"ĠCoast":5648,"ĠSwed":5649,"ĠPeople":5650,"Ġnegot":5651,"Ġslowly":5652,"Ġregarded":5653,"ĠMartin":5654,"ĠDaniel":5655,"ĠCroatia":5656,"ĠRAAF":5657,"ĠDjed":5658,"ĠRevolution":5659,"ĠBetween":5660,"ibrary":5661,"ĠLieutenant":5662,"ĠEntertainment":5663,"han":5664,"Ġtheat":5665,"Ġcited":5666,"Ġfan":5667,"ano":5668,"iced":5669,"Ġmic":5670,"Ġgas":5671,"Ġgives":5672,"Ġstations":5673,"Ġstages":5674,"ĠRail":5675,"ules":5676,"Ġnotable":5677,"Ġarms":5678,"ube":5679,"Ġ66":5680,"Ġ82":5681,"Ġcollected":5682,"Ġexpanded":5683,"Ġcreation":5684,"Ġ1965":5685,"espread":5686,"Ġturns":5687,"Ġarmor":5688,"Ġfarm":5689,"Ġsteel":5690,"ĠPhiladelphia":5691,"ĠMcCart":5692,"Ġdegree":5693,"Ġaspects":5694,"ĠToday":5695,"ĠSummer":5696,"Ġbeyond":5697,"ĠDjedkare":5698,"iences":5699,"rine":5700,"ycl":5701,"Ġcricket":5702,"Ġfur":5703,"Ġfox":5704,"roph":5705,"ĠHon":5706,"ĠHib":5707,"ĠDun":5708,"Ġisol":5709,"ĠNative":5710,"Ġru":5711,"Ġexecutive":5712,"Ġ71":5713,"Ġfinals":5714,"Ġsimple":5715,"Ġ1939":5716,"Ġprotection":5717,"Ġworldwide":5718,"Ġengaged":5719,"Ġcells":5720,"Ġsemi":5721,"Ġsilver":5722,"ias":5723,"uate":5724,"Ġtall":5725,"inate":5726,"Ġbid":5727,"Ġpul":5728,"Ġdaily":5729,"Ġeth":5730,"ĠBru":5731,"Ġgain":5732,"idges":5733,"ĠLuc":5734,"ager":5735,"Ġrac":5736,"Ġseat":5737,"Ġcoal":5738,"ĠDev":5739,"Ġphase":5740,"ĠAdv":5741,"Ġtrip":5742,"Ġallows":5743,"Ġoldest":5744,"Ġarrival":5745,"Ġcrossing":5746,"Ġpromotion":5747,"ĠGovernor":5748,"white":5749,"Ġtreatment":5750,"Ġbillion":5751,"Ġclean":5752,"ĠArea":5753,"Ġresponded":5754,"Ġunsuccess":5755,"ca":5756,"ez":5757,"fort":5758,"ini":5759,"reets":5760,"itan":5761,"Ġmales":5762,"Ġdrop":5763,"standing":5764,"ĠCD":5765,"ĠCre":5766,"ĠCle":5767,"ĠMic":5768,"ĠMot":5769,"ĠTheatre":5770,"ĠBand":5771,"ĠId":5772,"eton":5773,"imet":5774,"Ġheard":5775,"ĠDown":5776,"rak":5777,"ĠLiber":5778,"aved":5779,"ĠOh":5780,"illo":5781,"ogen":5782,"ieval":5783,"Ġdecades":5784,"iversary":5785,"Ġdistrict":5786,"Ġ1914":5787,"Ġprotect":5788,"Ġparliament":5789,"ĠSteve":5790,"Ġdelay":5791,"Ġfinds":5792,"graded":5793,"Ġimproved":5794,"Ġroughly":5795,"ĠWWE":5796,"Ġmolec":5797,"ĠApplewhite":5798,"Ġhorses":5799,"Ġphilos":5800,"hi":5801,"mit":5802,"Ġi":5803,"rel":5804,"itors":5805,"ĠAthlet":5806,"ĠSAF":5807,"Ġeas":5808,"lying":5809,"ivered":5810,"ĠFu":5811,"ĠFestival":5812,"ĠNBA":5813,"ĠGreg":5814,"ĠJur":5815,"ĠJud":5816,"Ġ94":5817,"Ġfilming":5818,"Ġactress":5819,"Ġaccident":5820,"Ġ1946":5821,"Ġdeveloping":5822,"Ġheaded":5823,"Ġrestaur":5824,"ĠAndy":5825,"Ġplanning":5826,"Ġfinding":5827,"Ġfocused":5828,"ĠBelg":5829,"Ġgradually":5830,"Ġconverted":5831,"ĠThroughout":5832,"ĠCommonwealth":5833,"ĠDevelopment":5834,"Ġbudget":5835,"ĠSAFE":5836,"OT":5837,"rum":5838,"tav":5839,"Ġfat":5840,"arp":5841,"rog":5842,"Ġmo":5843,"Ġdance":5844,"ĠTen":5845,"ĠHung":5846,"ĠRel":5847,"ĠRod":5848,"ĠDod":5849,"ĠDomin":5850,"ĠLu":5851,"ĠObs":5852,"aka":5853,"ĠVideo":5854,"Ġarc":5855,"Ġintelligence":5856,"assy":5857,"ĠAlf":5858,"Ġcenturies":5859,"Ġcool":5860,"Ġ110":5861,"Ġ177":5862,"Ġ1971":5863,"Ġgovernor":5864,"ĠProduction":5865,"Ġclassified":5866,"Ġturning":5867,"Ġexplos":5868,"Ġsteam":5869,"Ġwidespread":5870,"ÃŃa":5871,"Ġvolunte":5872,"Ġexisting":5873,"Ġcommissioned":5874,"Ġstopped":5875,"Le":5876,"lines":5877,"Ġtail":5878,"Ġaim":5879,"inj":5880,"eratops":5881,"Ġouter":5882,"ati":5883,"esh":5884,"ĠCold":5885,"Ġnor":5886,"urches":5887,"Ġstreet":5888,"ĠWind":5889,"anda":5890,"ava":5891,"ifically":5892,"Ġarran":5893,"phib":5894,"Ġprefer":5895,"Ġneither":5896,"icted":5897,"Ġproducers":5898,"Ġreceiving":5899,"Ġconcrete":5900,"ĠBroad":5901,"Ġdelivered":5902,"ĠBarb":5903,"Ġeyes":5904,"Ġbegun":5905,"Ġburns":5906,"Ġcolonial":5907,"SB":5908,"cop":5909,"cription":5910,"ym":5911,"Ġton":5912,"Ġsave":5913,"Ġcraft":5914,"Ġdial":5915,"Ġegg":5916,"Ġstret":5917,"rier":5918,"Ġdeities":5919,"Ġnote":5920,"Ġcontrib":5921,"Ġoverse":5922,"ropol":5923,"Ġundert":5924,"Ġsole":5925,"ifications":5926,"Ġ1975":5927,"ĠWhat":5928,"ĠBrig":5929,"Ġfinish":5930,"ĠProject":5931,"Ġcapable":5932,"Ġbreeding":5933,"ĠBarrow":5934,"Ġfemales":5935,"Ġvolume":5936,"Ġnegative":5937,"Ġdominated":5938,"ĠUpon":5939,"Ġsculpture":5940,"ĠLewis":5941,"iations":5942,"yles":5943,"Ġice":5944,"Ġfellow":5945,"ĠMu":5946,"ĠMir":5947,"Ġgreen":5948,"ĠRow":5949,"ĠNathan":5950,"ĠJac":5951,"Ġpros":5952,"Ġexclus":5953,"ĠUB":5954,"Ġresident":5955,"Ġreserv":5956,"weight":5957,"Ġsubt":5958,"Ġexpress":5959,"Ġdistingu":5960,"Ġanything":5961,"Ġlasted":5962,"Ġvisual":5963,"Ġdrawn":5964,"Ġintroduction":5965,"ĠKeats":5966,"ĠMagazine":5967,"Ġescape":5968,"Ġindependence":5969,"ĠCambod":5970,"Ġvehicles":5971,"Ġaccompanied":5972,"kins":5973,"Ã¤":5974,"Ġtend":5975,"Ġtrying":5976,"rell":5977,"ingly":5978,"iling":5979,"Ġneck":5980,"ĠBase":5981,"ĠBoard":5982,"ĠHor":5983,"ĠRon":5984,"ĠFriend":5985,"andy":5986,"Ġrit":5987,"ections":5988,"sea":5989,"Ġcomputer":5990,"rence":5991,"ropri":5992,"Ġdecre":5993,"Ġcharges":5994,"amese":5995,"Ġadding":5996,"Ġ160":5997,"ĠConst":5998,"restling":5999,"Ġagreement":6000,"Ġholding":6001,"ĠCardinal":6002,"Ġadapted":6003,"Ġnormal":6004,"ĠDougl":6005,"Ġpaintings":6006,"Ġtree":6007,"erc":6008,"Ġfuel":6009,"Ġbought":6010,"Ġmig":6011,"Ġdata":6012,"Ġhired":6013,"ĠCook":6014,"utation":6015,"ĠPers":6016,"ewhere":6017,"essed":6018,"Ġnothing":6019,"Ġrose":6020,"angers":6021,"ilding":6022,"ĠMario":6023,"Ġ1966":6024,"Ġopera":6025,"Ġstrateg":6026,"Ġserves":6027,"Ġpossibility":6028,"Ġhumans":6029,"Ġviewed":6030,"ographic":6031,"Ġcombination":6032,"Ġsurviv":6033,"Ġsurvey":6034,"Ġcrossed":6035,"Ġencoura":6036,"Ġrebu":6037,"Ġviolence":6038,"Ġtells":6039,"Ġfictional":6040,"come":6041,"Ġtrou":6042,"Ġfaith":6043,"isy":6044,"Ġlabor":6045,"ĠHan":6046,"ĠHard":6047,"ĠWall":6048,"ĠLy":6049,"ĠLow":6050,"istan":6051,"ighter":6052,"ĠChart":6053,"Ġcomposition":6054,"Ġ69":6055,"Ġ87":6056,"icks":6057,"Ġunderground":6058,"Ġacres":6059,"Ġtrain":6060,"Ġ164":6061,"Ġ1945":6062,"Ġdisturb":6063,"ĠColor":6064,"ĠJuan":6065,"Ġ1916":6066,"Ġcaptain":6067,"ĠAbu":6068,"Ġimportance":6069,"Ġsurvived":6070,"Ġglob":6071,"ĠCrown":6072,"Ġclosely":6073,"Ġexistence":6074,"borough":6075,"Ġreasons":6076,"Ġcalc":6077,"ĠVietnamese":6078,"Ġrif":6079,"Ġlearned":6080,"ĠColonel":6081,"respond":6082,"aver":6083,"aire":6084,"then":6085,"Ġcem":6086,"ĠSus":6087,"Ġthing":6088,"Ġstream":6089,"ĠNH":6090,"ĠLate":6091,"opher":6092,"abil":6093,"rupt":6094,"Ġresist":6095,"Ġperhaps":6096,"Ġconsists":6097,"Ġdecline":6098,"ĠMarc":6099,"Ġsubstant":6100,"Ġ1973":6101,"Ġ1967":6102,"Ġcarry":6103,"Ġinstruct":6104,"Ġprovides":6105,"Ġowners":6106,"Ġ1915":6107,"Ġinvolvement":6108,"ĠSongs":6109,"Ġcastle":6110,"ĠIslands":6111,"ĠWalter":6112,"Ġsections":6113,"Ġintersection":6114,"Ġ#":6115,"Ġaer":6116,"erted":6117,"Ġwins":6118,"Ġopt":6119,"ĠAri":6120,"ĠSound":6121,"ĠCub":6122,"ĠBor":6123,"ĠIG":6124,"iration":6125,"irls":6126,"ĠDet":6127,"uli":6128,"illing":6129,"ĠInstead":6130,"ĠKersh":6131,"Ġchorus":6132,"ĠUTC":6133,"Ġroutes":6134,"Ġagent":6135,"Ġdecor":6136,"ĠArthur":6137,"Ġdefined":6138,"Ġsubs":6139,"ĠLee":6140,"Ġmush":6141,"ĠJoe":6142,"Ġdoor":6143,"Ġemp":6144,"Ġperforming":6145,"Ġ1974":6146,"Ġdidn":6147,"Ġairport":6148,"ĠCommittee":6149,"Ġdetails":6150,"ĠPho":6151,"Ġcommanded":6152,"Ġstoryline":6153,"Ġprograms":6154,"Ġcougar":6155,"Ġhousehold":6156,"Ġaccompl":6157,"Ġmissing":6158,"ĠCommander":6159,"ĠStudios":6160,"Ġshooting":6161,"Ġnucleus":6162,"Ġenjoyed":6163,"sych":6164,"chen":6165,"hm":6166,"Ġster":6167,"arm":6168,"Ġbats":6169,"Ġhill":6170,"ĠType":6171,"ĠRay":6172,"eman":6173,"Ġwhy":6174,"ĠNap":6175,"Ġitems":6176,"sey":6177,"Ġenl":6178,"Ġ63":6179,"ooking":6180,"Ġtransform":6181,"Ġlongest":6182,"Ġ1978":6183,"Ġlanded":6184,"Ġ1952":6185,"Ġ1919":6186,"Ġevening":6187,"Ġsurviving":6188,"Ġlaws":6189,"Ġmassive":6190,"ĠBraz":6191,"Ġruled":6192,"Ġarchaeological":6193,"hetic":6194,"onnaissance":6195,"Ġconsisting":6196,"Ġdrama":6197,"Ġpurpose":6198,"ĠFrancisc":6199,"Ġathletes":6200,"Ġrepeated":6201,"ĠMendes":6202,"Ġtemnospondyls":6203,"ĠDouglas":6204,"ĠKershaw":6205,"AA":6206,"war":6207,"Å¡":6208,"Ġsle":6209,"Ġsom":6210,"Ġways":6211,"itiz":6212,"Ġcaught":6213,"Ġfirm":6214,"Ġfashion":6215,"ĠSnow":6216,"acity":6217,"ĠHaven":6218,"ĠRidge":6219,"ĠWin":6220,"ĠKenn":6221,"ĠStadium":6222,"Ġleaves":6223,"Ġattached":6224,"Ġdecade":6225,"ĠMarines":6226,"Ġinterior":6227,"Ġinterchange":6228,"Ġcalls":6229,"Ġ1976":6230,"Ġ250":6231,"Ġviews":6232,"Ġpropos":6233,"Ġislands":6234,"Ġcorrespond":6235,"Ġearthqu":6236,"Ġdeployed":6237,"Ġsynthes":6238,"gers":6239,"vis":6240,"Ġtomb":6241,"Ġmemorial":6242,"Ġdrew":6243,"ĠAer":6244,"entially":6245,"Ġlane":6246,"ĠBaby":6247,"imeter":6248,"Ġbeach":6249,"ĠRol":6250,"ĠRick":6251,"uma":6252,"iful":6253,"Ġcontest":6254,"Ġassemb":6255,"Ġ175":6256,"Ġmoder":6257,"Ġsentence":6258,"Ġmyth":6259,"Ġsettlers":6260,"Ġrenamed":6261,"Ġpenal":6262,"Ġsector":6263,"ĠSurv":6264,"Ġpilot":6265,"ĠSpecial":6266,"Ġopportunity":6267,"Ġdissipated":6268,"ĠTurkish":6269,"Ġpermanent":6270,"Äģda":6271,"ĠShortly":6272,"ĠThunderbirds":6273,"lik":6274,"à¸":6275,"Ġcateg":6276,"icop":6277,"ĠChel":6278,"amin":6279,"etery":6280,"iminal":6281,"ĠFree":6282,"ĠNick":6283,"iston":6284,"Ġrural":6285,"Ġselect":6286,"apes":6287,"iege":6288,"Ġreconst":6289,"achus":6290,"Ġ68":6291,"Ġsecure":6292,"ĠMarsh":6293,"ĠArts":6294,"Ġmoves":6295,"hess":6296,"Ġpopulations":6297,"Ġ1979":6298,"ĠConn":6299,"ĠSpace":6300,"Ġ1917":6301,"Ġ1936":6302,"Ġopposition":6303,"Ġtowns":6304,"ĠBoise":6305,"Ġdigital":6306,"Ġsymbol":6307,"edding":6308,"ĠPremier":6309,"Ġconspir":6310,"ii":6311,"la":6312,"yson":6313,"eda":6314,"Ġfilled":6315,"Ġha":6316,"Ġones":6317,"ĠBern":6318,"otes":6319,"Ġstore":6320,"ĠRox":6321,"ĠLife":6322,"osa":6323,"Ġsufficient":6324,"Ġcho":6325,"Ġchurches":6326,"elli":6327,"ĠChief":6328,"ĠAlbert":6329,"Ġimpr":6330,"Ġcommittee":6331,"iously":6332,"Ġknew":6333,"ĠLeon":6334,"Ġsupposed":6335,"Ġlocations":6336,"Ġinvited":6337,"Ġexpans":6338,"Ġproviding":6339,"Ġprotagon":6340,"Ġconvection":6341,"Ġskin":6342,"Ġassociation":6343,"Ġmissions":6344,"ĠEmperor":6345,"ĠGolden":6346,"Ġestablishment":6347,"Ġjourney":6348,"Ġderived":6349,"Ġadministration":6350,"Ġbenef":6351,"ĠCrazy":6352,"ĠAdditionally":6353,"RE":6354,"rist":6355,"Ġsun":6356,"Ġsort":6357,"Ġbranch":6358,"Ġdry":6359,"elve":6360,"uration":6361,"ĠBly":6362,"ĠBeck":6363,"iders":6364,"usal":6365,"Ġconference":6366,"ĠGab":6367,"Ġshared":6368,"Ġyouth":6369,"okes":6370,"ĠYe":6371,"ĠAnton":6372,"Ġknots":6373,"ublin":6374,"ĠScience":6375,"Ġsurrender":6376,"Ġ1982":6377,"Ġ1948":6378,"Ġarticle":6379,"Ġobt":6380,"ĠIsab":6381,"Ġfinishing":6382,"ipping":6383,"Ġreplace":6384,"Ġreplacement":6385,"Ġgreatly":6386,"ĠWithin":6387,"ĠAbout":6388,"Ġspeaking":6389,"Ġclubs":6390,"idden":6391,"Ġcoastal":6392,"Ġregarding":6393,"ĠHollywood":6394,"Ġeconomy":6395,"Ġdepicted":6396,"Ġapplied":6397,"Ġdynasty":6398,"ĠBono":6399,"Ġsucceeded":6400,"ĠDirector":6401,"Ġhydro":6402,"Ġign":6403,"Ġtied":6404,"Ġtable":6405,"err":6406,"Ġsan":6407,"Ġfer":6408,"Ġfil":6409,"Ġbat":6410,"Ġdating":6411,"ĠAge":6412,"ĠSor":6413,"ĠSanta":6414,"ilton":6415,"stances":6416,"Ġla":6417,"acon":6418,"ĠMid":6419,"ĠMTV":6420,"ĠJay":6421,"ĠJones":6422,"ĠOffic":6423,"Ġspons":6424,"apers":6425,"Ġjoint":6426,"aws":6427,"Ġdeck":6428,"Ġvert":6429,"Ġproducing":6430,"Ġsoft":6431,"Ġsuccessor":6432,"Ġantimony":6433,"Ġhistoric":6434,"regon":6435,"Ġglass":6436,"Ġcertified":6437,"chers":6438,"Ġzone":6439,"Ġmotion":6440,"Ġremainder":6441,"ĠMilitary":6442,"ĠRadio":6443,"Ġconsiderable":6444,"Ġacquired":6445,"ĠAttorney":6446,"ĠDoctor":6447,"ĠColorado":6448,"ĠBrazil":6449,"AG":6450,"ture":6451,"Ġurban":6452,"Ġcrop":6453,"Ġhyp":6454,"ĠSi":6455,"eld":6456,"omp":6457,"ĠIra":6458,"ĠDublin":6459,"ĠJain":6460,"agre":6461,"ĠOregon":6462,"ĠKang":6463,"Ġchampion":6464,"Ġexact":6465,"pty":6466,"ĠVol":6467,"assador":6468,"mann":6469,"ĠMaria":6470,"Ġunderw":6471,"Ġflu":6472,"Ġentering":6473,"anny":6474,"Ġreceive":6475,"Ġ1963":6476,"Ġhelicop":6477,"Ġcourts":6478,"engers":6479,"Ġhistorians":6480,"ĠSimilar":6481,"Ġfavour":6482,"ĠButler":6483,"Ġbaseball":6484,"Ġassistance":6485,"Ġchapel":6486,"Ġconcerns":6487,"Ã¡nh":6488,"ĠCharlie":6489,"ĠAnthony":6490,"ĠSunday":6491,"ĠIGN":6492,"ĠBlythe":6493,"SA":6494,"eor":6495,"host":6496,"Ġaware":6497,"Ġmut":6498,"ĠCop":6499,"ĠML":6500,"ĠBert":6501,"ĠBrian":6502,"ĠIgu":6503,"idae":6504,"ĠHin":6505,"Ġstem":6506,"ĠFire":6507,"opes":6508,"ichol":6509,"Ġchance":6510,"Ġunp":6511,"Ġarts":6512,"Ġ58":6513,"Ġcommit":6514,"Ġ78":6515,"Ġshel":6516,"attle":6517,"Ġtruth":6518,"Ġprotected":6519,"Ġiniti":6520,"Ġspeech":6521,"imental":6522,"sequently":6523,"ĠEvita":6524,"Ġtechnical":6525,"Ġtechnology":6526,"Ġgetting":6527,"Ġ1890":6528,"Ġfunding":6529,"ĠHoward":6530,"ĠCroatian":6531,"ranean":6532,"ba":6533,"break":6534,"die":6535,"theless":6536,"rets":6537,"Ġod":6538,"itled":6539,"Ġcold":6540,"Ġdru":6541,"ĠHell":6542,"ĠLenn":6543,"ĠGram":6544,"ĠJes":6545,"Ġcomic":6546,"Ġvon":6547,"Ġrub":6548,"Ġplum":6549,"Ġlegend":6550,"Ġcloud":6551,"Ġreserve":6552,"Ġrob":6553,"Ġteeth":6554,"Ġ74":6555,"ribed":6556,"Ġflights":6557,"Ġcolour":6558,"Ġverte":6559,"Ġacid":6560,"Ġtransit":6561,"Ġgoes":6562,"Ġattacking":6563,"Ġtries":6564,"Ġauthors":6565,"ĠMacLe":6566,"ĠKhÃ¡nh":6567,"ĠTransport":6568,"ĠJamal":6569,"Ġarranged":6570,"rant":6571,"ĠÎ":6572,"edom":6573,"Ġdog":6574,"entions":6575,"ĠCorn":6576,"Ġlob":6577,"eless":6578,"ĠHit":6579,"ĠPoint":6580,"Ġaltar":6581,"Ġvic":6582,"Ġsud":6583,"pton":6584,"ells":6585,"ĠHeavy":6586,"Ġresour":6587,"ĠAlan":6588,"ibbe":6589,"aware":6590,"Ġ91":6591,"Ġ89":6592,"Ġmeets":6593,"ĠSha":6594,"Ġfoundation":6595,"Ġdowntown":6596,"Ġdownload":6597,"Ġ1953":6598,"Ġcharacteristics":6599,"ĠPhill":6600,"encies":6601,"Ġwatched":6602,"Ġcorrect":6603,"Ġliterary":6604,"Ġdenied":6605,"Ġancest":6606,"Ġcontroversy":6607,"ĠTennyson":6608,"ĠAlexander":6609,"ĠLiu":6610,"ĠFreder":6611,"Ġoccasionally":6612,"Ġopinion":6613,"ĠStephen":6614,"pson":6615,"Ġtyphoon":6616,"Ġcab":6617,"Ġfair":6618,"Ġfiring":6619,"Ġdub":6620,"Ġhat":6621,"ĠTop":6622,"amy":6623,"ĠIV":6624,"ĠHomer":6625,"ĠRun":6626,"Ġcong":6627,"rake":6628,"ĠGA":6629,"agle":6630,"Ġrich":6631,"Ġchannel":6632,"ears":6633,"ĠAli":6634,"ĠMarl":6635,"Ġshowing":6636,"Ġ1913":6637,"Ġcapacity":6638,"Ġtypical":6639,"Ġterminus":6640,"ivalent":6641,"Ġpolitics":6642,"Ġpitch":6643,"Ġvalley":6644,"Ġstrengthen":6645,"Ġchapter":6646,"Ġimmig":6647,"Ġexamples":6648,"Ġdollar":6649,"Ġpowers":6650,"Ġsplit":6651,"borne":6652,"ĠIraq":6653,"nest":6654,"Ġtal":6655,"Ġmine":6656,"ĠAk":6657,"state":6658,"adow":6659,"ĠBi":6660,"ĠWars":6661,"ĠWalk":6662,"osis":6663,"Ġ1900":6664,"agn":6665,"ĠIng":6666,"Ġexerc":6667,"onder":6668,"Ġjack":6669,"Ġcommemor":6670,"Ġdepartment":6671,"Ġreputation":6672,"Ġgeneration":6673,"Ġreferences":6674,"Ġeverything":6675,"Ġfields":6676,"ĠSimon":6677,"ĠSimone":6678,"iece":6679,"Ġfacing":6680,"Ġ1880":6681,"Ġcircum":6682,"Ġlaunch":6683,"Ġresponsibility":6684,"Ġmotor":6685,"Ġmaintain":6686,"Ġextrem":6687,"Ġsafety":6688,"Ġinhabit":6689,"Ġhabitat":6690,"ĠColumbia":6691,"Ġportrayed":6692,"ĠSpring":6693,"ĠIguan":6694,"ban":6695,"min":6696,"oly":6697,"ta":6698,"Ġcorp":6699,"Ġpy":6700,"Ġdin":6701,"Ġhits":6702,"ĠTam":6703,"adal":6704,"ĠRem":6705,"ĠRoy":6706,"ĠLoren":6707,"Ġvary":6708,"ĠInc":6709,"ardo":6710,"Ġnoting":6711,"Ġoffers":6712,"Ġattributed":6713,"Ġgameplay":6714,"Ġretreat":6715,"Ġsomeone":6716,"Ġquite":6717,"Ġspecifically":6718,"Ġaddress":6719,"Ġ176":6720,"ĠCaribbe":6721,"Ġdetail":6722,"Ġcrime":6723,"Ġsolid":6724,"Ġdestroyers":6725,"Ġdiscovery":6726,"Ġrevolution":6727,"Ġindustrial":6728,"Ġembassy":6729,"Ġmeasures":6730,"ĠDepression":6731,"Ġcredited":6732,"Ġrecovered":6733,"Ġthousands":6734,"Ġinstrument":6735,"ĠModern":6736,"ĠMacLeod":6737,"eenth":6738,"iÄĩ":6739,"mod":6740,"Ġsquad":6741,"Ġworth":6742,"Ġcrown":6743,"ĠTs":6744,"ĠTetr":6745,"ĠSav":6746,"ĠSquare":6747,"ĠCas":6748,"Ġlov":6749,"ĠBat":6750,"Ġgross":6751,"ĠHun":6752,"ĠHere":6753,"ussion":6754,"ĠNether":6755,"ĠGil":6756,"estone":6757,"allow":6758,"Ġplants":6759,"ĠUlys":6760,"Ġshut":6761,"ĠStew":6762,"ĠChains":6763,"Ġju":6764,"intend":6765,"Ġwealth":6766,"raltar":6767,"Ġflo":6768,"Ġaccur":6769,"aza":6770,"Ġ1949":6771,"Ġcontinuing":6772,"Ġleads":6773,"Ġcarrying":6774,"Ġoccurs":6775,"Ġ1951":6776,"Ġ1956":6777,"Ġwindow":6778,"ĠBrook":6779,"ĠPerry":6780,"Ġpatron":6781,"Ġcompetitions":6782,"Äģn":6783,"Ġrecognition":6784,"Ġseparated":6785,"going":6786,"Ġdiscussed":6787,"ĠHoly":6788,"Ġvessels":6789,"Ġyounger":6790,"ĠSecretary":6791,"ĠGibraltar":6792,"Ġworst":6793,"unicipal":6794,"ĠCaribbean":6795,"ĠUlysses":6796,"eper":6797,"ients":6798,"know":6799,"ns":6800,"tty":6801,"Ġcard":6802,"Ġfranch":6803,"Ġbal":6804,"Ġinner":6805,"Ġpsych":6806,"ĠAy":6807,"Ġlit":6808,"amber":6809,"ĠMaster":6810,"ĠHospital":6811,"ĠDaily":6812,"ceived":6813,"ĠJersey":6814,"agu":6815,"agues":6816,"avia":6817,"ĠEdu":6818,"Ġshore":6819,"Ġcommitted":6820,"Ġ79":6821,"Ġpool":6822,"Ġflat":6823,"Ġ123":6824,"Ġstudied":6825,"Ġdescribing":6826,"Ġapproached":6827,"Ġopponents":6828,"Ġerected":6829,"Ġdifficulty":6830,"ĠDuke":6831,"Ġpredecess":6832,"iffe":6833,"Ġrules":6834,"Ġveget":6835,"ĠMoz":6836,"Ġindicate":6837,"ĠArchae":6838,"ĠSenate":6839,"ĠCritical":6840,"Ġconstitution":6841,"ĠHistoric":6842,"Ġdismissed":6843,"Ġearthquake":6844,"Ġpenalty":6845,"oh":6846,"rations":6847,"ÅĤ":6848,"Ġfit":6849,"ician":6850,"ĠAround":6851,"ĠAston":6852,"Ġthin":6853,"Ġeighth":6854,"ĠMah":6855,"ĠImp":6856,"ivals":6857,"ĠPerson":6858,"ĠPagan":6859,"ĠRio":6860,"aked":6861,"ĠStory":6862,"ĠStarr":6863,"ĠChan":6864,"ountain":6865,"Ġaftern":6866,"Ġ67":6867,"ĠAnonymous":6868,"Ġ88":6869,"Ġamphib":6870,"Ġaccused":6871,"ĠShow":6872,"Ġ1983":6873,"Ġdesignation":6874,"ossible":6875,"inking":6876,"erva":6877,"Ġwinner":6878,"ĠForces":6879,"Ġattempting":6880,"Ġorganizations":6881,"Ġbasin":6882,"Ġbasic":6883,"Ġdemol":6884,"Ġconvoy":6885,"ĠRecording":6886,"Ġcrosses":6887,"Ġhosted":6888,"Ġcreator":6889,"Ġbrothers":6890,"ĠOde":6891,"Ġapart":6892,"ĠCampb":6893,"ĠOlympics":6894,"Ġmethods":6895,"ĠGeorgian":6896,"Ġpicked":6897,"Ġastron":6898,"Ġrecommended":6899,"Ġrhyth":6900,"Ġduties":6901,"ĠHornung":6902,"Ġceremony":6903,"Ġacademic":6904,"Ġsudden":6905,"var":6906,"zz":6907,"rec":6908,"orer":6909,"Ġfant":6910,"Ġhang":6911,"Ġlic":6912,"aments":6913,"ĠMemorial":6914,"othes":6915,"ĠWy":6916,"ĠLess":6917,"aga":6918,"istol":6919,"Ġvan":6920,"Ġunn":6921,"ender":6922,"Ġdesire":6923,"Ġmanner":6924,"Ġsecured":6925,"oba":6926,"Ġretained":6927,"Ġregime":6928,"Ġ112":6929,"Ġ1961":6930,"Ġappearing":6931,"Ġcamps":6932,"Ġstarred":6933,"Ġbelieves":6934,"ĠTelevision":6935,"Ġstrongly":6936,"Ġreality":6937,"Ġstatement":6938,"ĠSimps":6939,"Ġdivisions":6940,"Ġcharts":6941,"Ġinterested":6942,"ĠTownship":6943,"Ġmissed":6944,"stitution":6945,"Ġfrig":6946,"Ġblocks":6947,"Ġexception":6948,"Ġfavorite":6949,"Ġemerged":6950,"Ġdollars":6951,"Ġchallenge":6952,"Ġbattleships":6953,"Ġleadership":6954,"ĠFantasy":6955,"Ġatmosphere":6956,"ĠAML":6957,"Ġisolated":6958,"Ġphilosoph":6959,"ĠFrancisco":6960,"ĠChelsea":6961,"Ġextremely":6962,"ĠSimpsons":6963,"gÃ©":6964,"key":6965,"nic":6966,"nell":6967,"ooth":6968,"Ġwedding":6969,"aton":6970,"orters":6971,"Ġinland":6972,"inger":6973,"ĠCru":6974,"Ġgal":6975,"igation":6976,"Ġstones":6977,"ĠDota":6978,"ĠFame":6979,"Ġalleg":6980,"Ġconqu":6981,"ĠGore":6982,"rif":6983,"oca":6984,"ĠKurt":6985,"ensus":6986,"Ġoutf":6987,"Ġpregn":6988,"Ġhighlight":6989,"Ġoperating":6990,"Ġprovince":6991,"Ġadvis":6992,"Ġbreaking":6993,"ĠOrgan":6994,"ĠOrder":6995,"ĠAmb":6996,"Ġstands":6997,"Ġconvin":6998,"Ġequipped":6999,"Ġholds":7000,"Ġsuperior":7001,"Ġintensified":7002,"Ġaccounts":7003,"Ġtribes":7004,"Ġassistant":7005,"ĠPatrick":7006,"ĠCambridge":7007,"Ġrarely":7008,"Ġprincipal":7009,"Ġironclads":7010,"Ġthirty":7011,"Ġdiameter":7012,"Ġunusual":7013,"Ġparallel":7014,"ĠPhoen":7015,"ĠTetrarch":7016,"Ġafternoon":7017,"VN":7018,"aft":7019,"cement":7020,"pret":7021,"zen":7022,"ĪĴ":7023,"organ":7024,"Ġfal":7025,"Ġfish":7026,"Ġbes":7027,"Ġble":7028,"ĠAld":7029,"elly":7030,"Ġeu":7031,"uri":7032,"aya":7033,"ĠPatt":7034,"ĠDi":7035,"ĠDisc":7036,"ĠDesc":7037,"ĠJenn":7038,"ĠEc":7039,"ĠElect":7040,"ĠKat":7041,"ĠKil":7042,"ĠâĪĴ":7043,"Ġshif":7044,"Ġshots":7045,"ĠStation":7046,"Ġintention":7047,"Ġoverw":7048,"Ġprey":7049,"Ġteaching":7050,"Ġdefended":7051,"Ġregional":7052,"Ġdoct":7053,"Ġcarved":7054,"Ġpassage":7055,"ĠPlot":7056,"Ġanniversary":7057,"Ġ1910":7058,"Ġreviewer":7059,"ĠPrime":7060,"Ġcovers":7061,"Ġcriminal":7062,"ĠTrack":7063,"Ġvictims":7064,"ĠRomani":7065,"ĠMountains":7066,"ĠHaiti":7067,"ĠHamilton":7068,"ĠMadonna":7069,"Ġnomination":7070,"ĠMaeda":7071,"Ġforests":7072,"ĠEngineer":7073,"ĠWriting":7074,"iplom":7075,"Ġexpedition":7076,"ĠConstantine":7077,"ĠHibari":7078,"Ġobtained":7079,"ĠHindu":7080,"LI":7081,"gie":7082,"ois":7083,"ruli":7084,"wise":7085,"yard":7086,"Ġtheatre":7087,"real":7088,"atures":7089,"ori":7090,"anth":7091,"Ġbond":7092,"Ġbaby":7093,"Ġpushed":7094,"Ġpuzz":7095,"Ġdie":7096,"ĠSports":7097,"ĠCam":7098,"oming":7099,"Ġnob":7100,"acent":7101,"Ġgall":7102,"ĠRÃ©":7103,"ĠRangers":7104,"ĠNC":7105,"ĠGang":7106,"Ġvision":7107,"ateur":7108,"ables":7109,"abled":7110,"earch":7111,"Ġspacing":7112,"oked":7113,"Ġpartly":7114,"Ġ99":7115,"ockey":7116,"Ġretire":7117,"Ġverse":7118,"Ġentry":7119,"Ġsym":7120,"Ġtransition":7121,"Ġpassengers":7122,"ception":7123,"ĠBeach":7124,"ĠQedar":7125,"Ġclasses":7126,"Ġapproved":7127,"Ġvisible":7128,"Ġmedieval":7129,"attered":7130,"istered":7131,"Ġwatch":7132,"Ġseeing":7133,"Ġsettle":7134,"Ġimprove":7135,"ĠQueens":7136,"Ġimmediate":7137,"glades":7138,"Ġattracted":7139,"senal":7140,"evo":7141,"ĠPeninsula":7142,"ĠMassachus":7143,"ĠIndustry":7144,"ĠVenus":7145,"Ġremnants":7146,"ĠFriends":7147,"ĠMassachusetts":7148,"body":7149,"cape":7150,"ext":7151,"point":7152,"Ġic":7153,"Ġsession":7154,"Ġwick":7155,"Ġfitted":7156,"Ġmart":7157,"lete":7158,"ĠTrib":7159,"ĠCape":7160,"ĠPot":7161,"ĠFront":7162,"osure":7163,"Ġproceed":7164,"ĠChronic":7165,"ogether":7166,"Ġreconnaissance":7167,"ultane":7168,"Ġparties":7169,"ĠUnlike":7170,"Ġdefences":7171,"Ġwhereas":7172,"Ġincome":7173,"Ġindig":7174,"Ġ1977":7175,"Ã©t":7176,"quez":7177,"ĠAbb":7178,"Ġtwelve":7179,"Ġelectric":7180,"ĠEliz":7181,"Ġequal":7182,"Ġadmitted":7183,"ucky":7184,"ĠRepublican":7185,"ĠOslo":7186,"ĠSingles":7187,"Ġhotel":7188,"ĠIndependent":7189,"Ġironclad":7190,"ĠWeekly":7191,"ĠRoger":7192,"Ġsurvivors":7193,"ĠIguanodon":7194,"FC":7195,"aug":7196,"fare":7197,"lan":7198,"math":7199,"pective":7200,"worth":7201,"Ġsed":7202,"isis":7203,"ĠTu":7204,"ĠCB":7205,"ĠChen":7206,"amar":7207,"Ġnav":7208,"Ġnone":7209,"Ġgather":7210,"ima":7211,"imal":7212,"Ġconvers":7213,"ewhat":7214,"anti":7215,"ocal":7216,"Ġplain":7217,"acked":7218,"cles":7219,"cliffe":7220,"Ġoffense":7221,"Ġupd":7222,"ĠAsh":7223,"Ġacknow":7224,"Ġ05":7225,"Ġ06":7226,"Ġpublisher":7227,"Ġdistribution":7228,"Ġreturns":7229,"Ġ1955":7230,"Ġ1937":7231,"aurus":7232,"Ġdriving":7233,"Ġcommunities":7234,"iterranean":7235,"Ġpainted":7236,"Ġpromote":7237,"Ġconnection":7238,"Ġsuffering":7239,"Ġfalling":7240,"ĠMediterranean":7241,"Ġcivilian":7242,"Ġseemed":7243,"Ġwithdrew":7244,"Ġcompletion":7245,"ASA":7246,"Ġfeeling":7247,"ĠHotel":7248,"ĠSamuel":7249,"ĠBradford":7250,"Ġrescue":7251,"Ġarrested":7252,"Ġutil":7253,"Ġarrangement":7254,"ĠMongol":7255,"ĠRolling":7256,"Ġexpansion":7257,"ĠFrederick":7258,"OC":7259,"bur":7260,"rast":7261,"va":7262,"wa":7263,"onica":7264,"Ġcul":7265,"Ġcart":7266,"Ġcinem":7267,"Ġbrick":7268,"eline":7269,"Ġninth":7270,"ĠMain":7271,"urrent":7272,"ĠHug":7273,"uses":7274,"ĠPict":7275,"verse":7276,"ĠDNA":7277,"ĠFish":7278,"ĠGully":7279,"Ġvac":7280,"Ġvide":7281,"Ġraces":7282,"Ġrugby":7283,"ĠInit":7284,"abeth":7285,"angerous":7286,"Ġpreced":7287,"ĠAnc":7288,"Ġshear":7289,"Ġcharter":7290,"Ġfollowers":7291,"Ġindicated":7292,"Ġ07":7293,"Ġdepos":7294,"Ġsigning":7295,"Ġcarbon":7296,"Ġwarm":7297,"Ġimplement":7298,"ĠDeath":7299,"Ġoppos":7300,"Ġlegs":7301,"Ġcloser":7302,"Ġregularly":7303,"Ġframe":7304,"Ġthreatened":7305,"ĠMaryland":7306,"ĠMontana":7307,"ĠTerrit":7308,"ĠEverglades":7309,"ĠJerusal":7310,"Ġdrums":7311,"ĠHuman":7312,"Ġemotional":7313,"Ġspecimens":7314,"ĠMorrison":7315,"Ġmushroom":7316,"ĠRoxas":7317,"ĠLorenzo":7318,"ĠJerusalem":7319,"bles":7320,"dal":7321,"Ġske":7322,"Ġwrong":7323,"Ġpup":7324,"ĠTel":7325,"ĠSher":7326,"ĠSup":7327,"ĠMul":7328,"urd":7329,"ĠBank":7330,"using":7331,"ĠPan":7332,"ĠPower":7333,"Ġhear":7334,"ĠNBC":7335,"ĠNerva":7336,"rage":7337,"ĠLab":7338,"ctions":7339,"ĠJun":7340,"Ġanth":7341,"Ġrum":7342,"Ġorn":7343,"Ġpartners":7344,"Ġimpl":7345,"amps":7346,"Ġassumed":7347,"Ġcoord":7348,"ĠLev":7349,"inson":7350,"Ġmonuments":7351,"Ġnoisy":7352,"ĠMaya":7353,"Ġ1954":7354,"ĠAdams":7355,"Ġpointed":7356,"Ġ1938":7357,"Ġ1927":7358,"iveness":7359,"ĠStef":7360,"Ġmarks":7361,"ĠEddie":7362,"Ġcirculation":7363,"Ġcollaps":7364,"Ġtreaty":7365,"Ġscholar":7366,"hews":7367,"ĠGeorgia":7368,"Ġcontroversial":7369,"ĠSomali":7370,"Ġalternative":7371,"ĠTruj":7372,"Ġeasily":7373,"Ġeggs":7374,"Ġsomewhat":7375,"30":7376,"iary":7377,"ni":7378,"Ã¸":7379,"Ġtaught":7380,"Ġworship":7381,"oral":7382,"itals":7383,"Ġbay":7384,"Ġmap":7385,"Ġhall":7386,"lease":7387,"entional":7388,"ĠCE":7389,"amic":7390,"Ġnick":7391,"oli":7392,"Ġgard":7393,"Ġforcing":7394,"igg":7395,"Ġstead":7396,"Ġstreak":7397,"ĠPope":7398,"ĠNintend":7399,"rapped":7400,"rien":7401,"Ġaged":7402,"Ġenfor":7403,"Ġsoil":7404,"Ġmonarch":7405,"Ġ178":7406,"Ġ1962":7407,"ĠProf":7408,"Ġdriven":7409,"Ġdestruction":7410,"Ġdebate":7411,"Ġposted":7412,"Ġinvolving":7413,"ĠAngle":7414,"Ġarmour":7415,"Ġnovels":7416,"Ġstrip":7417,"ĠRoberts":7418,"Ġ1870":7419,"Ġdrawing":7420,"Ġsurrounded":7421,"Ġabsor":7422,"Ġpurchase":7423,"Ġshells":7424,"Ġcamera":7425,"Ġinstitutions":7426,"Ġromantic":7427,"Ġdocumentary":7428,"Ġfranchise":7429,"ĠMozamb":7430,"ĠTrujillo":7431,"ĠNintendo":7432,"20":7433,"cements":7434,"ker":7435,"ris":7436,"rich":7437,"Ġur":7438,"Ġsnow":7439,"Ġocean":7440,"orous":7441,"itated":7442,"Ġcitiz":7443,"Ġfaces":7444,"Ġbed":7445,"Ġbones":7446,"icate":7447,"icide":7448,"Ġdivers":7449,"Ġdream":7450,"Ġdiplom":7451,"Ġhope":7452,"lets":7453,"ĠBang":7454,"ĠISB":7455,"ĠHong":7456,"uts":7457,"Ġstadium":7458,"ĠRain":7459,"emed":7460,"ĠFlow":7461,"ĠNar":7462,"ĠOwen":7463,"Ġexisted":7464,"Ġexha":7465,"range":7466,"ĠThird":7467,"Ġjazz":7468,"ĠAniston":7469,"Ġfled":7470,"ĠShak":7471,"itsune":7472,"Ġdepend":7473,"Ġestate":7474,"ĠUSS":7475,"Ġinstalled":7476,"ĠCarter":7477,"Ġconcerts":7478,"Ġ1958":7479,"Ġstorms":7480,"Ġmedium":7481,"ĠFlight":7482,"aska":7483,"Ġcatch":7484,"ĠHarry":7485,"autiful":7486,"Ġsequel":7487,"Ġrailway":7488,"Ġterritories":7489,"ĠJean":7490,"Ġvoted":7491,"Ġstayed":7492,"Ġbringing":7493,"Ġbadly":7494,"ĠCastle":7495,"munition":7496,"ĠRhodesian":7497,"Ġcandidate":7498,"ĠArgentina":7499,"Ġfungus":7500,"Ġsubmarine":7501,"Ġunsuccessful":7502,"Ġrestaurant":7503,"Ġpyram":7504,"bishop":7505,"Ã§":7506,"Ġtie":7507,"inally":7508,"rees":7509,"Ġwants":7510,"enburg":7511,"Ġfold":7512,"Ġpric":7513,"ĠTig":7514,"ĠAR":7515,"ĠSap":7516,"ĠSonic":7517,"ĠCab":7518,"amm":7519,"ĠBos":7520,"iday":7521,"otic":7522,"ĠHay":7523,"ĠRom":7524,"ĠDC":7525,"ĠDur":7526,"ĠDiv":7527,"ĠDanny":7528,"iform":7529,"Ġproport":7530,"Ġrecalled":7531,"Ġpartial":7532,"Ġpartially":7533,"Ġconsum":7534,"Ġconsult":7535,"Ġ86":7536,"Ġammunition":7537,"Ġ08":7538,"Ġ121":7539,"Ġentitled":7540,"Ġpreserved":7541,"Ġextension":7542,"Ġdistributed":7543,"ĠPlunk":7544,"Ġ140":7545,"ĠBeat":7546,"Ġclassic":7547,"Ġskull":7548,"Ġlimit":7549,"Ġsettled":7550,"ĠActivision":7551,"Ġaccommod":7552,"Ġreduce":7553,"ĠKorea":7554,"Ġtraveled":7555,"Ġmulti":7556,"ĠPrior":7557,"Ġconcerned":7558,"Ġlinked":7559,"Ġhoped":7560,"ĠDesign":7561,"claimed":7562,"Ġmessage":7563,"ĠLisa":7564,"ĠIsabella":7565,"ĠLennon":7566,"ĠISBN":7567,"kh":7568,"rative":7569,"Ġtone":7570,"Ġsulf":7571,"Ġpage":7572,"ashed":7573,"Ġdock":7574,"ĠTower":7575,"Ġlap":7576,"ĠBranch":7577,"ĠFair":7578,"ĠNaval":7579,"ĠKen":7580,"ĠKong":7581,"Ġkings":7582,"ĠâĢĳ":7583,"ĠStrand":7584,"Ġspin":7585,"apa":7586,"ĠVII":7587,"Ġcontext":7588,"Ġrecre":7589,"Ġrecru":7590,"Ġupgraded":7591,"weet":7592,"ternal":7593,"Ġsongwrit":7594,"Ġrelative":7595,"Ġ127":7596,"ĠUSD":7597,"Ġdesigns":7598,"ĠGermans":7599,"ennis":7600,"Ġbright":7601,"Ġ1959":7602,"Ġpossession":7603,"Ġcovering":7604,"Ġeffectively":7605,"ĠEarl":7606,"Ġfootage":7607,"Ġprogramme":7608,"ĠCalvert":7609,"ĠFederal":7610,"Ġtreated":7611,"offman":7612,"Ġrenew":7613,"Ġengineering":7614,"Ġgrav":7615,"Ġinjured":7616,"ĠPlayer":7617,"Ġbombard":7618,"Ġproducts":7619,"Ġinvestigation":7620,"Ġratings":7621,"ĠRyan":7622,"Ġagricultural":7623,"ĠConstruction":7624,"Ġresources":7625,"AC":7626,"bb":7627,"cation":7628,"gra":7629,"Ġels":7630,"Ġtick":7631,"onia":7632,"Ġsell":7633,"itian":7634,"arning":7635,"Ġloyal":7636,"Ġet":7637,"Ġgro":7638,"ĠHud":7639,"Ġstreets":7640,"ĠPul":7641,"Ġalle":7642,"ĠWhere":7643,"ĠLanc":7644,"Ġansw":7645,"Ġorchest":7646,"ĠKansas":7647,"Ġplane":7648,"ĠStock":7649,"Ġserial":7650,"teenth":7651,"arked":7652,"Ġacts":7653,"Ġreleg":7654,"Ġinterpret":7655,"ajevo":7656,"ĠBeauty":7657,"Ġclassical":7658,"Ġprotests":7659,"Ġrefers":7660,"ĠMuslim":7661,"Ġreviewers":7662,"Ġengines":7663,"Ġvictories":7664,"Ġmeetings":7665,"Ġidentity":7666,"Ġinspiration":7667,"Ġfunds":7668,"Ġescort":7669,"Ġcruiser":7670,"Ġcolonies":7671,"Ġhappy":7672,"ĠResearch":7673,"Ġloan":7674,"Ġdegrees":7675,"ĠSarajevo":7676,"ĠSomalia":7677,"Ġwearing":7678,"Ġapparently":7679,"Ġchemical":7680,"Ġincorporated":7681,"Ġoverseas":7682,"Ġresistance":7683,"ĠNetherlands":7684,"Ġelsewhere":7685,"iy":7686,"iour":7687,"night":7688,"oom":7689,"vention":7690,"wich":7691,"yer":7692,"Ġau":7693,"Ġfine":7694,"Ġblow":7695,"Ġbone":7696,"rose":7697,"ĠTest":7698,"ĠTreat":7699,"ĠSa":7700,"ĠSab":7701,"ĠCult":7702,"ĠBal":7703,"union":7704,"ĠFern":7705,"ĠNow":7706,"ĠGun":7707,"ĠJif":7708,"Ġprohib":7709,"Ġsees":7710,"udes":7711,"ĠKaw":7712,"Ġchronic":7713,"ĠUr":7714,"ĠUt":7715,"Ġlearning":7716,"ellite":7717,"ĠVice":7718,"ignment":7719,"Ġagree":7720,"enses":7721,"ensis":7722,"inton":7723,"Ġ900":7724,"Ġrelie":7725,"Ġ09":7726,"Ġexposed":7727,"rows":7728,"uchi":7729,"Ġbelt":7730,"ĠWho":7731,"Ġimpossible":7732,"ĠBlood":7733,"Ġgenerated":7734,"Ġmodified":7735,"Ġdetailed":7736,"Ġelabor":7737,"Ġlowest":7738,"Ġequivalent":7739,"Ġchanging":7740,"Ġarmored":7741,"Ġlooked":7742,"Ġrelationships":7743,"Ġreveals":7744,"Ġmerch":7745,"Ġabsence":7746,"Ġsatis":7747,"ĠVeronica":7748,"ĠYankovic":7749,"ĠDestiny":7750,"ĠNorman":7751,"ĠStanley":7752,"Ġoccasions":7753,"Ġrhythm":7754,"Ġeurop":7755,"Ġvideos":7756,"bra":7757,"hol":7758,"iÅ":7759,"wan":7760,"à¤":7761,"ĠÅ":7762,"Ġsight":7763,"Ġow":7764,"arth":7765,"anning":7766,"Ġdens":7767,"ĠTon":7768,"Ġrepr":7769,"Ġlies":7770,"ĠBad":7771,"otton":7772,"Ġash":7773,"ĠPass":7774,"ĠRugby":7775,"ĠDie":7776,"ĠDark":7777,"chang":7778,"ĠNak":7779,"ĠLabor":7780,"agi":7781,"agas":7782,"Ġray":7783,"Ġselection":7784,"uda":7785,"Ġexchange":7786,"ureau":7787,"Ġappropri":7788,"Ġafterwards":7789,"ĠYour":7790,"ĠComb":7791,"Ġ165":7792,"Ġminister":7793,"ĠIslam":7794,"Ġoffices":7795,"ĠAdam":7796,"Ġ1935":7797,"Ġrestored":7798,"Ġ1929":7799,"Ġwestward":7800,"Ġdivine":7801,"Ġlanguages":7802,"Ġ1860":7803,"Ġburned":7804,"Ġpractices":7805,"Ġtransportation":7806,"Ġstationed":7807,"Ġtribute":7808,"ĠDonald":7809,"ĠVictorian":7810,"Ġrequested":7811,"Ġchalleng":7812,"Ġmoral":7813,"Ġextreme":7814,"Ġadults":7815,"ĠClarkson":7816,"ĠDemocratic":7817,"Ġencouraged":7818,"Ġprotagonist":7819,"ĠBeckham":7820,"Ġcongreg":7821,"Ġinhabitants":7822,"Ġopposite":7823,"Ġalleged":7824,"Brien":7825,"rates":7826,"ugh":7827,"wick":7828,"á»":7829,"orial":7830,"Ġcry":7831,"isp":7832,"ingale":7833,"Ġpin":7834,"ĠTok":7835,"ĠAP":7836,"entures":7837,"ĠCR":7838,"ĠCory":7839,"Ġliber":7840,"Ġonline":7841,"emia":7842,"ĠDyn":7843,"ĠLords":7844,"ifer":7845,"ĠKim":7846,"Ġleuk":7847,"ĠChannel":7848,"Ġcloth":7849,"Ġmovements":7850,"Ġenters":7851,"annah":7852,"Ġoperate":7853,"Ġ1911":7854,"Ġ1932":7855,"Ġ1921":7856,"Ġstandards":7857,"Ġdeliber":7858,"Ġsuggesting":7859,"Ġ1909":7860,"Ġreading":7861,"Ġpraise":7862,"Ġgenre":7863,"Ġmountains":7864,"Ġdifficulties":7865,"ĠÃĹ":7866,"Ġhappened":7867,"ĠRadcliffe":7868,"ĠEvery":7869,"Ġemerg":7870,"Ġunderstand":7871,"Ġaccompany":7872,"iques":7873,"Ġvessel":7874,"Ġyoungest":7875,"ĠWilde":7876,"Ġpanel":7877,"Ġadjacent":7878,"Ġassassination":7879,"ĠSkye":7880,"ĠAthletic":7881,"Ġritual":7882,"ĠJifna":7883,"vements":7884,"Ġå":7885,"Ġille":7886,"hered":7887,"reme":7888,"Ġsunk":7889,"Ġsiege":7890,"aled":7891,"ilation":7892,"otype":7893,"Ġstable":7894,"Ġheat":7895,"ĠFound":7896,"ĠFras":7897,"Ġalien":7898,"ĠLower":7899,"Ġrated":7900,"aste":7901,"ĠChang":7902,"Ġconsol":7903,"Ġactual":7904,"Ġenth":7905,"ĠAustrian":7906,"Ġtrail":7907,"Ġexpensive":7908,"ĠIndones":7909,"Ġcrest":7910,"Ġinfrast":7911,"Ġbrig":7912,"Ġannually":7913,"Ġ1912":7914,"encing":7915,"Ġdefeating":7916,"spec":7917,"Ġready":7918,"ĠKevin":7919,"Ġpredomin":7920,"Ġrepresenting":7921,"avalry":7922,"Ġburial":7923,"ĠRussia":7924,"ĠWilson":7925,"Ġensure":7926,"Ġvisitors":7927,"Ġjudge":7928,"Ġhundreds":7929,"ĠConfeder":7930,"Ġthrone":7931,"Ġpreparation":7932,"Ġcustom":7933,"ĠGrammy":7934,"ĠElizabeth":7935,"Hg":7936,"uv":7937,"yo":7938,"Ġsam":7939,"Ġsqu":7940,"Ġsessions":7941,"Ġbrand":7942,"Ġpure":7943,"Ġpale":7944,"icit":7945,"leton":7946,"elle":7947,"Ġgone":7948,"terbury":7949,"usad":7950,"ĠProm":7951,"Ġcomments":7952,"Ġvul":7953,"Ġexit":7954,"Ġexcess":7955,"Ġshark":7956,"ĠStra":7957,"apse":7958,"Ġintense":7959,"Ġresumed":7960,"Ġtele":7961,"Ġraid":7962,"Ġraise":7963,"Ġforming":7964,"Ġwritings":7965,"Ġmuscar":7966,"Ġ122":7967,"ĠWarren":7968,"Ġpoll":7969,"Ġcarri":7970,"Ġowner":7971,"Ġmusicians":7972,"ĠProg":7973,"Ġ1931":7974,"ĠGuy":7975,"Ġwilling":7976,"ĠCanterbury":7977,"espe":7978,"Ġclaiming":7979,"Ġelse":7980,"itarian":7981,"Ġcycle":7982,"Ġinfluential":7983,"Ġgrounds":7984,"Ġcoup":7985,"Ġinterests":7986,"ĠPalace":7987,"ĠMexican":7988,"Ġrebels":7989,"Ġinjuries":7990,"itzer":7991,"Ġmaterials":7992,"Ġgrey":7993,"Ġabsol":7994,"ĠLawrence":7995,"Ġnormally":7996,"Ġessential":7997,"Ġpurposes":7998,"ĠBurns":7999,"Ġdisappoint":8000,"ĠClassic":8001,"Ġmemory":8002,"Ġexecuted":8003,"Ġfixed":8004,"ĠBanai":8005,"Ġchairman":8006,"Ġstere":8007,"Ġeuropium":8008,"AT":8009,"DS":8010,"aired":8011,"sch":8012,"zac":8013,"Ã±":8014,"Ġib":8015,"Ġoption":8016,"Ġfram":8017,"ĠinHg":8018,"illy":8019,"ĠMack":8020,"ĠBed":8021,"ĠBass":8022,"ĠBron":8023,"ĠBah":8024,"ira":8025,"otal":8026,"owitz":8027,"ĠPine":8028,"uls":8029,"Ġalter":8030,"Ġdeleg":8031,"ĠâĤ":8032,"Ġshipping":8033,"Ġspaces":8034,"Ġunion":8035,"Ġherd":8036,"Ġteach":8037,"formation":8038,"ĠComple":8039,"Ġsubst":8040,"Ġformally":8041,"ĠReal":8042,"Ġsurpr":8043,"Ġminimum":8044,"Ġobl":8045,"Ġcarries":8046,"Ġcargo":8047,"Ġairline":8048,"Ġtwin":8049,"ĠPoland":8050,"ombat":8051,"Ġwatching":8052,"Ġmixture":8053,"Ġrevol":8054,"Ġrecognised":8055,"Ġclearly":8056,"Ġobjective":8057,"Ġvote":8058,"ĠNorway":8059,"Ġwatershed":8060,"Ġturrets":8061,"ĠProtest":8062,"Ġspecimen":8063,"Ġlbw":8064,"Ġbulk":8065,"ĠColeman":8066,"Ġresidential":8067,"Ġinitiative":8068,"ĠJesus":8069,"Ġoverwhel":8070,"ĠShakespe":8071,"ĠShakespeare":8072,"fire":8073,"nal":8074,"rinth":8075,"Å«":8076,"Ġtack":8077,"Ġtight":8078,"heim":8079,"heme":8080,"Ġtheater":8081,"Ġsons":8082,"Ġinaug":8083,"aling":8084,"alog":8085,"ĠTechn":8086,"ĠTyphoon":8087,"ĠSem":8088,"ĠSand":8089,"ĠSweet":8090,"sta":8091,"Ġeasy":8092,"utz":8093,"ĠDick":8094,"ĠFel":8095,"ĠNL":8096,"ĠNeb":8097,"ĠWolf":8098,"rawn":8099,"ĠGoffman":8100,"ĠJoy":8101,"Ġorb":8102,"ĠChampion":8103,"ĠAlong":8104,"Ġenh":8105,"Ġevil":8106,"Ġformal":8107,"Ġ02":8108,"Ġtrained":8109,"Ġ161":8110,"ĠGerard":8111,"ĠJohnston":8112,"Ġobst":8113,"Ġinstall":8114,"Ġinstance":8115,"Ġprevented":8116,"ossal":8117,"Ġsimultane":8118,"ĠMega":8119,"Ġ1933":8120,"ĠHergÃ©":8121,"ĠGeoff":8122,"Ġtemples":8123,"Ġwindows":8124,"Ġavo":8125,"ĠSupp":8126,"ĠPolice":8127,"Ġneeds":8128,"ÃŃvar":8129,"Ġargues":8130,"ĠAgain":8131,"Ġkingdom":8132,"Ġobjects":8133,"abyrinth":8134,"Ġautom":8135,"Ġcheck":8136,"Ġjournal":8137,"ĠJaneiro":8138,"Ġreinforcements":8139,"ĠBolÃŃvar":8140,"Ġcomposer":8141,"criptions":8142,"Ġdoubt":8143,"Ġpicture":8144,"ĠJournal":8145,"Ġsegment":8146,"Ġpreferred":8147,"ĠJacob":8148,"ĠCambodia":8149,"Ġglobal":8150,"Ġcircumstances":8151,"Ġconvinced":8152,"ĠKilmer":8153,"ĠQueensland":8154,"ĠSaprang":8155,"CC":8156,"OK":8157,"after":8158,"cribed":8159,"eo":8160,"oes":8161,"Ġtip":8162,"Ġturb":8163,"erog":8164,"Ġsailed":8165,"rous":8166,"Ġmask":8167,"Ġmunicipal":8168,"ĠTro":8169,"ĠSn":8170,"urst":8171,"ĠBudd":8172,"ĠBureau":8173,"emies":8174,"ĠWard":8175,"ĠWimb":8176,"ĠLang":8177,"ĠJMA":8178,"ifies":8179,"Ġprol":8180,"Ġdeemed":8181,"Ġplate":8182,"iang":8183,"ishment":8184,"uez":8185,"ĠHearts":8186,"Ġrooms":8187,"ĠAlb":8188,"Ġdesert":8189,"Ġ84":8190,"ekÄģn":8191,"ledon":8192,"Ġextent":8193,"ĠClinton":8194,"Ġanyone":8195,"axon":8196,"ĠMcG":8197,"Ġperiods":8198,"Ġlisting":8199,"Ġcauses":8200,"Ġmyst":8201,"Ġrepresents":8202,"Ġsurvive":8203,"coming":8204,"Ġrebell":8205,"Ġrepresentative":8206,"ĠMedia":8207,"ĠKoreans":8208,"ĠMoore":8209,"ĠLawton":8210,"Ġadopt":8211,"Ġmoments":8212,"ĠBCE":8213,"oirs":8214,"ĠJustice":8215,"Ġinternal":8216,"Ġdisplays":8217,"Ġinteraction":8218,"ĠNazi":8219,"Ġdeparture":8220,"ĠGarc":8221,"Ġnarrative":8222,"ĠPalestine":8223,"uppet":8224,"Ġtravelled":8225,"Ġdialogue":8226,"Ġproposal":8227,"eorological":8228,"ĠProfess":8229,"ĠFraser":8230,"ĠWimbledon":8231,"MO":8232,"gets":8233,"mat":8234,"Ê»":8235,"Ġsoul":8236,"Ġcreek":8237,"icity":8238,"Ġhip":8239,"ilty":8240,"ĠCelt":8241,"Ġlibrary":8242,"acle":8243,"urse":8244,"ĠBark":8245,"ĠHob":8246,"ĠHarrison":8247,"Ġbearing":8248,"ĠLet":8249,"rik":8250,"rior":8251,"rift":8252,"uster":8253,"Ġago":8254,"Ġoutl":8255,"rene":8256,"Ġtex":8257,"inals":8258,"Ġfeed":8259,"ĠMarg":8260,"ĠLead":8261,"Ġextrat":8262,"Ġdiscip":8263,"Ġbridges":8264,"Ġprompted":8265,"Ġrestoration":8266,"Ġportrait":8267,"ĠChristopher":8268,"Ġstarling":8269,"Ġbases":8270,"Ġdemand":8271,"Ġformerly":8272,"ĠXe":8273,"Ġinfluences":8274,"Ġcriticised":8275,"Ġrounds":8276,"Ġdevot":8277,"Ġpersu":8278,"Ġpoorly":8279,"ĠRichardson":8280,"ĠMalays":8281,"Ġtowers":8282,"Ġobservations":8283,"Ġdramatic":8284,"ĠDelaware":8285,"ĠFormula":8286,"Ġthrowing":8287,"Ġdefenders":8288,"Ġarchitecture":8289,"Ġthousand":8290,"Ġinstruments":8291,"Ġlegislation":8292,"ĠOriginally":8293,"Ġcompounds":8294,"Ġbehaviour":8295,"Ġtactics":8296,"ĠGuardian":8297,"Ġethnic":8298,"Ġdelayed":8299,"Ġdecorated":8300,"Ġreconstruction":8301,"Ġimprison":8302,"ĠEducation":8303,"Ġacknowled":8304,"Ġextratropical":8305,"bound":8306,"burn":8307,"dess":8308,"dney":8309,"mel":8310,"zi":8311,"Ġtrick":8312,"inery":8313,"Ġciting":8314,"enous":8315,"icul":8316,"Ġdiet":8317,"ĠSb":8318,"ilst":8319,"ĠCob":8320,"ĠThen":8321,"ĠBell":8322,"olith":8323,"ĠHind":8324,"uscript":8325,"Ġstood":8326,"ĠDak":8327,"Ġconsequ":8328,"ĠNCA":8329,"ĠWing":8330,"osl":8331,"osm":8332,"ĠEp":8333,"ĠOur":8334,"ategy":8335,"ĠKy":8336,"ĠKombat":8337,"ĠUpper":8338,"oven":8339,"Ġjunction":8340,"Ġpoets":8341,"Ġ92":8342,"Ġremember":8343,"ĠSee":8344,"obile":8345,"Ġdefending":8346,"Ġregiment":8347,"roscop":8348,"ificial":8349,"Ġ03":8350,"Ġseverely":8351,"athers":8352,"Ġsmooth":8353,"ullen":8354,"ĠManagement":8355,"Ġuseful":8356,"Ġmodels":8357,"Ġphr":8358,"Ġconsiders":8359,"Ġstrategy":8360,"ĠCanal":8361,"Ġpossess":8362,"Ġorganised":8363,"Ġtemporary":8364,"Ġengage":8365,"ĠRecord":8366,"Ġelectronic":8367,"Ġarrive":8368,"Ġdivor":8369,"ĠKeamy":8370,"Ġvillages":8371,"ĠAtlanta":8372,"Ġcrews":8373,"ĠBerlin":8374,"Ġbiography":8375,"enesis":8376,"Ġthinking":8377,"Ġestablishing":8378,"Ġproperties":8379,"Ġfeelings":8380,"Ġdocuments":8381,"Ġjournalist":8382,"Ġunderstanding":8383,"Ġpursue":8384,"ĠAdminist":8385,"ĠCathedral":8386,"ĠMortal":8387,"Ġrebuilt":8388,"Ġsubstantial":8389,"ĠHitler":8390,"Ġnickn":8391,"ĠFernand":8392,"van":8393,"Ġrib":8394,"Ġtailed":8395,"inating":8396,"Ġsisters":8397,"Ġcars":8398,"Ġbon":8399,"roit":8400,"ĠSuch":8401,"Ġlie":8402,"Ġnom":8403,"ĠMach":8404,"idation":8405,"ĠHou":8406,"Ġstock":8407,"ĠRest":8408,"thosaurus":8409,"ĠNichol":8410,"ĠWright":8411,"rabs":8412,"ĠGary":8413,"ĠEle":8414,"Ġsure":8415,"ĠVi":8416,"Ġwheel":8417,"Ġresigned":8418,"Ġagents":8419,"ricted":8420,"overs":8421,"Ġattained":8422,"Ġconsc":8423,"ĠArj":8424,"Ġinterpre":8425,"Ġamateur":8426,"Ġ162":8427,"atherine":8428,"Ġartwork":8429,"Ġcounties":8430,"uthor":8431,"Ġ1957":8432,"Ġ1928":8433,"Ġtrading":8434,"Ġcompete":8435,"ĠMinor":8436,"ĠMinistry":8437,"Ġtechniques":8438,"Ġdoesn":8439,"Ġsequences":8440,"Ġengineer":8441,"Ġachieve":8442,"ĠFIA":8443,"ĠArabic":8444,"Ġcorner":8445,"Ġencountered":8446,"Ġneighbor":8447,"ĠSilver":8448,"ĠRajne":8449,"Ġwarships":8450,"Ġtunnel":8451,"ĠAlbums":8452,"ĠDetroit":8453,"Ġfalse":8454,"ĠPlunketts":8455,"ĠCorythosaurus":8456,"book":8457,"dale":8458,"fl":8459,"hl":8460,"mate":8461,"nings":8462,"pent":8463,"rim":8464,"uable":8465,"water":8466,"wald":8467,"Ġbor":8468,"Ġbom":8469,"ĠAz":8470,"ĠSoon":8471,"Ġlists":8472,"oma":8473,"ĠMand":8474,"ĠMother":8475,"Ġwasn":8476,"ĠBa":8477,"olay":8478,"ĠHed":8479,"Ġbeautiful":8480,"ĠDal":8481,"ĠFall":8482,"ĠNatives":8483,"ĠWrestling":8484,"ĠLamb":8485,"ĠJr":8486,"ĠâĢľ":8487,"ipe":8488,"Ġspr":8489,"Ġspoke":8490,"apore":8491,"Ġunlike":8492,"rupted":8493,"Ġclock":8494,"Ġclimate":8495,"Ġrecur":8496,"Ġotherwise":8497,"Ġoutbreak":8498,"inder":8499,"ĠUnivers":8500,"ĠAnzac":8501,"Ġpoison":8502,"Ġquant":8503,"Ġ125":8504,"Ġsymp":8505,"rams":8506,"Ġ166":8507,"Ġ155":8508,"Ġnorthward":8509,"Ġguilty":8510,"ĠAllah":8511,"Ġeleven":8512,"Ġprompt":8513,"Ġtriple":8514,"Ġ1926":8515,"incess":8516,"Ġcrisis":8517,"Ġoriginated":8518,"Ġarmament":8519,"Ġreaders":8520,"ĠOlm":8521,"Ġfuner":8522,"ĠPalmy":8523,"Ġcondem":8524,"Ġaudiences":8525,"ĠJews":8526,"Ġcivilians":8527,"Ġbiographer":8528,"Ġengineers":8529,"Ġfrust":8530,"Ġtribut":8531,"Ġdetermine":8532,"Ġdepicts":8533,"ĠSingapore":8534,"Ġsatellite":8535,"Ġinnov":8536,"rorist":8537,"Ġindicating":8538,"Ġschedule":8539,"Ġexperiences":8540,"Ġsafe":8541,"ĠDefence":8542,"Ġdemonstrated":8543,"Ġremarked":8544,"hua":8545,"ĠExpress":8546,"ĠMarlborough":8547,"Ġpyramid":8548,"Ġinfrastructure":8549,"erogative":8550,"pe":8551,"western":8552,"Ġsq":8553,"orph":8554,"Ġfault":8555,"Ġfestival":8556,"Ġpack":8557,"Ġrect":8558,"Ġrender":8559,"ĠSin":8560,"ĠCec":8561,"ĠCass":8562,"Ġlose":8563,"elin":8564,"ĠMes":8565,"ĠBath":8566,"ĠBorn":8567,"Ġgarrison":8568,"irid":8569,"ĠPA":8570,"ĠDave":8571,"ĠLink":8572,"Ġprove":8573,"Ġrivers":8574,"Ġorbit":8575,"Ġkitsune":8576,"Ġnotably":8577,"usts":8578,"Ġclimb":8579,"Ġscattered":8580,"Ġpartner":8581,"Ġplayoff":8582,"Ġoutp":8583,"ĠSeason":8584,"ologies":8585,"Ġassisted":8586,"Ġ101":8587,"Ġwarning":8588,"Ġimpressed":8589,"Ġdescribe":8590,"isms":8591,"ĠPlat":8592,"Ġ1934":8593,"Ġrefuge":8594,"ĠMcD":8595,"Ġdifferences":8596,"Ġsky":8597,"Ġlooks":8598,"ĠChampionships":8599,"Ġtests":8600,"Ġclosest":8601,"Ġ1850":8602,"Ġinformed":8603,"Ġburning":8604,"ĠCorporation":8605,"Ġoccupation":8606,"Ġdrove":8607,"ĠFei":8608,"Ġweapon":8609,"Ġphotograph":8610,"Ġevacuation":8611,"Ġgraphics":8612,"Ġtouchdowns":8613,"ĠMiller":8614,"Ġranging":8615,"ĠUlt":8616,"ĠPitman":8617,"ĠGallery":8618,"Ġvoiced":8619,"Ġbehavior":8620,"ĠNevertheless":8621,"ĠBaseball":8622,"ĠRicky":8623,"ĠPhillies":8624,"Ġpredecessor":8625,"ĠTerritory":8626,"ĠSupreme":8627,"ĠStefani":8628,"ĠGarcÃŃa":8629,"EC":8630,"cru":8631,"friend":8632,"har":8633,"hist":8634,"hire":8635,"lock":8636,"life":8637,"rants":8638,"vious":8639,"Ġax":8640,"Ġsad":8641,"Ġsale":8642,"Ġwine":8643,"Ġori":8644,"Ġban":8645,"Ġbord":8646,"Ġpine":8647,"Ġmoon":8648,"Ġmamm":8649,"Ġdiver":8650,"ĠTai":8651,"Ġlat":8652,"Ġlanes":8653,"ĠMuch":8654,"ĠBou":8655,"ivan":8656,"ivated":8657,"oto":8658,"ĠHom":8659,"ĠHok":8660,"ĠHaving":8661,"utt":8662,"Ġstyl":8663,"ĠRa":8664,"ĠRu":8665,"ĠRace":8666,"ĠDig":8667,"Ġconclusion":8668,"ĠNetwork":8669,"ĠWic":8670,"ĠWeb":8671,"Ġvast":8672,"Ġrates":8673,"oceratops":8674,"iped":8675,"Ġuniform":8676,"oko":8677,"ĠHend":8678,"Ġresidence":8679,"ricts":8680,"Ġjun":8681,"Ġmanuscript":8682,"Ġcanc":8683,"Ġcharged":8684,"Ġcooper":8685,"Ġsupporters":8686,"ĠShik":8687,"Ġsurg":8688,"Ġreprodu":8689,"ĠShel":8690,"Ġgenerals":8691,"Ġmusician":8692,"Ġconsidering":8693,"Ġtrials":8694,"apped":8695,"Ġparish":8696,"Ġtempor":8697,"Ġopponent":8698,"alky":8699,"Ġelections":8700,"Ġterrain":8701,"Ġfactors":8702,"ĠEvent":8703,"ĠGlob":8704,"ĠMonument":8705,"Ġliked":8706,"Ġgoddess":8707,"ĠSydney":8708,"Ġranking":8709,"Ġrailroad":8710,"ĠOverall":8711,"Ġcleared":8712,"ĠFIFA":8713,"Ġsuspended":8714,"ĠEnterprise":8715,"Ġprepare":8716,"Ġdisplayed":8717,"Ġvehicle":8718,"Ġranges":8719,"Ġscientific":8720,"Ġbatsman":8721,"Ġmoderate":8722,"Ġmartial":8723,"ĠInitially":8724,"Ġcollapsed":8725,"ĠTreaty":8726,"species":8727,"SP":8728,"boy":8729,"gam":8730,"ji":8731,"xual":8732,"za":8733,"Ġsaved":8734,"Ġwrest":8735,"Ġfoss":8736,"Ġfishing":8737,"alf":8738,"Ġdangerous":8739,"acter":8740,"ĠMoon":8741,"ĠBush":8742,"ĠBaker":8743,"Ġgar":8744,"usic":8745,"ĠRaff":8746,"ĠFurt":8747,"Ġalt":8748,"ĠNob":8749,"ĠWomen":8750,"ĠLinc":8751,"osh":8752,"ĠJT":8753,"ĠEight":8754,"Ġprosp":8755,"ocy":8756,"ĠKann":8757,"Ġspur":8758,"Ġresign":8759,"Ġabund":8760,"Ġscheme":8761,"ensions":8762,"Ġimperial":8763,"Ġteen":8764,"ĠUntil":8765,"rible":8766,"away":8767,"Ġearning":8768,"Ġamino":8769,"Ġ105":8770,"Ġexposure":8771,"Ġmainland":8772,"Ġoperates":8773,"Ġlandings":8774,"ĠGuide":8775,"Ġrestrict":8776,"Ġdeter":8777,"apping":8778,"Ġ1000":8779,"Ġdemands":8780,"Ġbands":8781,"Ã¡r":8782,"Ġsituated":8783,"Ġsteep":8784,"ĠCooper":8785,"Ġhousing":8786,"Ġlayer":8787,"Ġhunting":8788,"ĠLegacy":8789,"Ġspiritual":8790,"ĠCaes":8791,"Ġpremiere":8792,"ĠMcCarty":8793,"ĠOhio":8794,"ĠAlfred":8795,"Ġexclusively":8796,"ĠPersian":8797,"ĠAerith":8798,"ĠGilbert":8799,"ĠCBS":8800,"Ġpupils":8801,"ĠHudson":8802,"ĠOlmec":8803,"WC":8804,"lie":8805,"ng":8806,"no":8807,"rating":8808,"inian":8809,"inations":8810,"reck":8811,"Ġsaves":8812,"Ġfill":8813,"Ġbell":8814,"Ġmode":8815,"Ġrevers":8816,"ĠSid":8817,"ĠSull":8818,"Ġninet":8819,"acles":8820,"urday":8821,"Ġgiant":8822,"ĠHope":8823,"uty":8824,"Ġstyles":8825,"ĠNear":8826,"ĠLast":8827,"Ġanaly":8828,"agogue":8829,"odore":8830,"ĠEy":8831,"Ġrig":8832,"Ġsuit":8833,"Ġsuitable":8834,"ĠKrak":8835,"ruz":8836,"Ġcontribution":8837,"Ġdisaster":8838,"ĠYug":8839,"Ġcancer":8840,"ĠRelease":8841,"Ġ01":8842,"Ġfounder":8843,"Ġexpect":8844,"azines":8845,"Ġconstant":8846,"Ġorganisation":8847,"Ġexplo":8848,"Ġcrash":8849,"Ġstatistics":8850,"Ġinteresting":8851,"rapy":8852,"Ġcollapse":8853,"Ġruling":8854,"Ġcosts":8855,"Ġrespective":8856,"ĠMarkgra":8857,"Ġperspective":8858,"Ġsubjects":8859,"ĠGrade":8860,"Ġdispat":8861,"ĠCampaign":8862,"ĠPortugal":8863,"Ġbiggest":8864,"Ġsoutheastern":8865,"Ġcelebrated":8866,"Ġopportunities":8867,"Ġstruggle":8868,"ĠFurthermore":8869,"ĠSaturday":8870,"Ġneutral":8871,"Ġstriking":8872,"Ġpremiered":8873,"ĠSwedish":8874,"ĠDominican":8875,"inje":8876,"Ġtrouble":8877,"Ġrifle":8878,"Ġcrops":8879,"Ġunderwent":8880,"Ġtemporarily":8881,"ĠRaffles":8882,"ĠFurtado":8883,"ĠJTWC":8884,"ĠMarkgraf":8885,"NL":8886,"power":8887,"piece":8888,"ti":8889,"time":8890,"zing":8891,"Ġtrough":8892,"Ġtenth":8893,"Ġfert":8894,"arant":8895,"Ġbanned":8896,"asters":8897,"Ġhull":8898,"Ġhuge":8899,"ĠTan":8900,"ĠTal":8901,"ĠCO":8902,"ĠCome":8903,"Ġlake":8904,"Ġnit":8905,"Ġnations":8906,"ecraft":8907,"Ġgets":8908,"Ġgrown":8909,"ĠPow":8910,"ĠPier":8911,"ĠRen":8912,"ĠDAG":8913,"ulating":8914,"ĠLith":8915,"ĠGa":8916,"ĠGen":8917,"ersed":8918,"oda":8919,"ewise":8920,"udo":8921,"Ġchamber":8922,"ĠUsta":8923,"ĠâĢĿ":8924,"ĠStu":8925,"ĠValky":8926,"Ġattrib":8927,"ĠArk":8928,"Ġcharity":8929,"Ġprerogative":8930,"Ġformat":8931,"Ġhighways":8932,"ĠSholay":8933,"tenance":8934,"Ġdepending":8935,"Ġ115":8936,"Ġrepair":8937,"ervative":8938,"ĠAllen":8939,"onto":8940,"Ġrefere":8941,"Ġparas":8942,"Ġdifference":8943,"Ġlisten":8944,"shore":8945,"Ġrealized":8946,"Ġelectron":8947,"Ġmagazines":8948,"Ġerr":8949,"ĠSimpson":8950,"osaurs":8951,"Ġrenov":8952,"Ġmeasured":8953,"Ġresearchers":8954,"Ġviolent":8955,"Ġtruck":8956,"ĠYears":8957,"ĠSocial":8958,"Ġdominant":8959,"Ġamounts":8960,"ĠInterstate":8961,"Ġfavorable":8962,"ĠHeadquarters":8963,"Ġproductions":8964,"iliar":8965,"Ġoxy":8966,"ĠCorb":8967,"Ġelevation":8968,"Ġwithdrawal":8969,"Ġencounter":8970,"Ġsucceed":8971,"ĠHawaii":8972,"Ġseeking":8973,"Ġadvertising":8974,"Ġeliminated":8975,"ĠNHL":8976,"Ġconspiracy":8977,"ĠStewart":8978,"ĠCampbell":8979,"Ġretirement":8980,"ĠMozambique":8981,"Ġmuscaria":8982,"ĠNCAA":8983,"ĠArjona":8984,"ĠUstaÅ¡":8985,"DH":8986,"box":8987,"don":8988,"ean":8989,"egr":8990,"mouth":8991,"vati":8992,"Ľni":8993,"Ġtiss":8994,"Ġwings":8995,"orious":8996,"Ġtoll":8997,"icus":8998,"Ġmbar":8999,"Ġdwar":9000,"ĠCy":9001,"omic":9002,"Ġeat":9003,"ĠMun":9004,"ĠBoys":9005,"Ġgam":9006,"idel":9007,"ĠHamp":9008,"ĠHans":9009,"owiec":9010,"Ġbear":9011,"Ġhem":9012,"ĠNiel":9013,"ĠNash":9014,"ĠWander":9015,"ĠWiÅ":9016,"Ġanch":9017,"ĠEst":9018,"ĠExt":9019,"Ġvice":9020,"ongs":9021,"Ġexists":9022,"ryce":9023,"Ġclim":9024,"ĠThus":9025,"pled":9026,"Ġmanga":9027,"Ġpref":9028,"ints":9029,"inds":9030,"Ġweigh":9031,"Ġsubspecies":9032,"Ġprime":9033,"Ġreleases":9034,"ĠAustria":9035,"Ġnumbered":9036,"Ġ113":9037,"Ġdirectors":9038,"Ġdesigner":9039,"Ġadvancing":9040,"ĠDean":9041,"Ġcharacterized":9042,"Ġpromised":9043,"Ġpublications":9044,"Ġclassification":9045,"ĠMcL":9046,"ĠMcM":9047,"Ġchildhood":9048,"Ġdriver":9049,"Ġexplains":9050,"Ġcommunications":9051,"Ġeveryone":9052,"Ġelder":9053,"Ġfreedom":9054,"Ġprofile":9055,"ĠBarry":9056,"Ġ1908":9057,"Ġputting":9058,"ĠPhilip":9059,"ĠMaggie":9060,"Ġcyclones":9061,"Ġemployees":9062,"Ġwithdrawn":9063,"Ġnominations":9064,"ĠToronto":9065,"ĠSchm":9066,"Ġharbour":9067,"Ġcruisers":9068,"Ġfrequent":9069,"ĠIsraeli":9070,"Ġaspect":9071,"Ġinstitution":9072,"ĠCommunist":9073,"Ġcolumns":9074,"ĠWatson":9075,"ĠGraves":9076,"ĠBelgium":9077,"Ġfatal":9078,"ĠHungarian":9079,"Ġdistinguished":9080,"Ġstrategic":9081,"ĠNapole":9082,"Ġdrug":9083,"ĠHeavyweight":9084,"Ġjackrab":9085,"ĠLabour":9086,"Ġcitizens":9087,"ĠProtestant":9088,"ĠBarker":9089,"ĠLincol":9090,"ĠSullivan":9091,"ĠYugosl":9092,"Ġdwarf":9093,"Pa":9094,"itively":9095,"Ġchess":9096,"enic":9097,"Ġbod":9098,"ĠAT":9099,"ĠSans":9100,"ellect":9101,"ecution":9102,"ĠBab":9103,"ĠBoss":9104,"ĠBenn":9105,"olis":9106,"Ġbears":9107,"Ġbeauty":9108,"ĠRaw":9109,"unes":9110,"ĠWag":9111,"ĠGate":9112,"ĠEagle":9113,"aks":9114,"aku":9115,"ĠUFC":9116,"Ġshaft":9117,"geon":9118,"Ġspac":9119,"Ġspend":9120,"Ġspores":9121,"ishn":9122,"Ġenemies":9123,"Ġcenters":9124,"eping":9125,"Ġfeud":9126,"ĠArsenal":9127,"Ġsubmitted":9128,"Ġpeaking":9129,"Ġcoins":9130,"Ġthereafter":9131,"arsh":9132,"Ġ163":9133,"Ġmetre":9134,"Ġ117":9135,"ĠConc":9136,"Ġairfield":9137,"ashi":9138,"Ġguerr":9139,"Ġrestricted":9140,"Ġslide":9141,"ĠParaly":9142,"ĠParvati":9143,"Ġ1923":9144,"urricanes":9145,"Ġinitiated":9146,"Ġdrain":9147,"Ġstrongest":9148,"ĠTracy":9149,"ĠPerform":9150,"Ġskills":9151,"ĠPolit":9152,"Ġ1905":9153,"Ġsounds":9154,"ĠGlad":9155,"oof":9156,"Ġfalls":9157,"ĠHills":9158,"ĠRocky":9159,"Ġbusinesses":9160,"ĠBusiness":9161,"ĠTurks":9162,"ĠMrs":9163,"Ġtargets":9164,"ĠBuilding":9165,"Ġbatteries":9166,"ĠDerry":9167,"Ġconcentrated":9168,"Ġholiday":9169,"Ġexcavation":9170,"Ġaggressive":9171,"Ġemphasis":9172,"ĠBulgar":9173,"Ã¶n":9174,"Ġcemetery":9175,"Ġassembled":9176,"Ġbenefit":9177,"Ġstrengthened":9178,"ĠOrganization":9179,"ĠPhoenix":9180,"ĠRÃ©union":9181,"ĠAncient":9182,"ekÄģntav":9183,"Ġtexts":9184,"Ľniowiec":9185,"ĠWiÅĽniowiec":9186,"ĠParalymp":9187,"cour":9188,"gov":9189,"mont":9190,"nie":9191,"yc":9192,"heera":9193,"atur":9194,"isler":9195,"asm":9196,"Ġtopped":9197,"Ġmines":9198,"Ġhorn":9199,"ĠAA":9200,"ĠAce":9201,"ĠSk":9202,"adier":9203,"urance":9204,"ĠBrand":9205,"Ġstrict":9206,"Ġhearing":9207,"ĠRoth":9208,"Ġalive":9209,"Ġaltered":9210,"ĠWisc":9211,"ĠGro":9212,"ĠGwen":9213,"ĠJason":9214,"aints":9215,"ĠEaton":9216,"Ġcomed":9217,"aki":9218,"ĠKelly":9219,"essee":9220,"ĠStaff":9221,"asts":9222,"Ġyield":9223,"oster":9224,"Ġunlik":9225,"Ġjury":9226,"Ġfeels":9227,"ĠAsian":9228,"Ġdecides":9229,"onsin":9230,"Ġartificial":9231,"Ġdistricts":9232,"Ġinscription":9233,"Ġinscriptions":9234,"ĠPlan":9235,"Ã©e":9236,"Ġvariation":9237,"Ġgray":9238,"Ġlatex":9239,"raction":9240,"Ġstarlings":9241,"Ġbelieving":9242,"Ġcommunication":9243,"Ġamongst":9244,"Ġpatrol":9245,"ĠAnglo":9246,"Ġjoining":9247,"Ġarmoured":9248,"Ġradiation":9249,"ĠSym":9250,"Ġfifty":9251,"Ġfifteen":9252,"Ġtesting":9253,"Ġfallen":9254,"Ġasks":9255,"Ġhonour":9256,"ĠSlayer":9257,"Ġmerely":9258,"Ġfundament":9259,"Ġremoval":9260,"ĠKhand":9261,"ĠPoly":9262,"ĠTrail":9263,"Ġadaptation":9264,"Ġvotes":9265,"Ġboundary":9266,"Ġconversion":9267,"ĠTennessee":9268,"ĠCritics":9269,"Ġarchitectural":9270,"ĠRhodesia":9271,"ĠKirk":9272,"Ġdelivery":9273,"ĠMurray":9274,"ĠJonathan":9275,"Ġaimed":9276,"ropolitan":9277,"ĠKannada":9278,"ĠUstaÅ¡e":9279,"ekÄģntavÄģda":9280,"ĠWisconsin":9281,"jan":9282,"pan":9283,"taker":9284,"zed":9285,"rep":9286,"Ġsung":9287,"Ġwet":9288,"itia":9289,"Ġfate":9290,"Ġfasc":9291,"Ġfountain":9292,"Ġped":9293,"Ġdies":9294,"ĠCateg":9295,"amount":9296,"Ġnurse":9297,"ĠMidge":9298,"ĠMÃ¡r":9299,"ĠBulls":9300,"olen":9301,"otten":9302,"Ġstores":9303,"ĠDum":9304,"ĠFle":9305,"ĠFalls":9306,"char":9307,"ĠLost":9308,"ĠGray":9309,"Ġvault":9310,"Ġsuicide":9311,"ĠKam":9312,"Ġnotice":9313,"ĠVI":9314,"ĠVul":9315,"Ġintellect":9316,"Ġusage":9317,"achute":9318,"Ġapprec":9319,"ensively":9320,"Ġupset":9321,"inding":9322,"oyage":9323,"Ġconservation":9324,"Ġflash":9325,"Ġsubstitute":9326,"Ġentertain":9327,"Ġsurprise":9328,"Ġimpression":9329,"ennium":9330,"Ġgenera":9331,"Ġhelmet":9332,"Ġapproval":9333,"Ġ1925":9334,"Ġengagement":9335,"neath":9336,"Ġexpert":9337,"ĠPerfect":9338,"Ġarriving":9339,"ĠDavis":9340,"ĠNext":9341,"Ġpredators":9342,"atinum":9343,"Ġharm":9344,"Ġantiqu":9345,"Ġpotentially":9346,"Ġuncertain":9347,"Ġapplication":9348,"ĠHowe":9349,"Ġconflicts":9350,"Ġtalking":9351,"Ġdistinctive":9352,"Ġpounder":9353,"Ġdeparted":9354,"Ġsteps":9355,"Ġmagnitude":9356,"Ġenvironmental":9357,"Ġcomparison":9358,"ĠMasters":9359,"Ġtheatrical":9360,"ĠRailway":9361,"Ġpulled":9362,"Ġempire":9363,"Ġdemolished":9364,"Ġillegal":9365,"ĠFoundation":9366,"ĠRajneesh":9367,"ĠEventually":9368,"ĠStuart":9369,"ĠKhandoba":9370,"ĠCategory":9371,"ĠMÃ¡rquez":9372,"dress":9373,"jamin":9374,"ua":9375,"vor":9376,"yll":9377,"Ã£":9378,"Ġtub":9379,"nda":9380,"ester":9381,"ashes":9382,"Ġtoured":9383,"Ġtoler":9384,"Ġmir":9385,"Ġdense":9386,"Ġhills":9387,"Ġrend":9388,"ĠSM":9389,"ĠSS":9390,"ĠSle":9391,"Ġthrew":9392,"ĠCirc":9393,"omura":9394,"ami":9395,"Ġnet":9396,"Ġnavy":9397,"ĠMk":9398,"Ġongoing":9399,"ĠBacon":9400,"imer":9401,"Ġforty":9402,"ige":9403,"Ġhen":9404,"ĠRaid":9405,"unc":9406,"unch":9407,"ĠFRE":9408,"ĠNon":9409,"ĠGirls":9410,"ods":9411,"ĠEric":9412,"opl":9413,"Ġvs":9414,"illas":9415,"akers":9416,"arte":9417,"Ġchoir":9418,"ĠStories":9419,"iao":9420,"ĠVik":9421,"Ġrot":9422,"Ġpermission":9423,"Ġrecon":9424,"Ġdisagre":9425,"Ġencl":9426,"Ġevident":9427,"Ġpole":9428,"Ġ83":9429,"Ġtrust":9430,"Ġrelation":9431,"Ġcoinc":9432,"Ġcoaching":9433,"Ġmaintenance":9434,"Ġ114":9435,"Ġcompleting":9436,"Ġinflict":9437,"Ġeffic":9438,"Ġadvice":9439,"Ġadventure":9440,"Ġedges":9441,"ĠBeh":9442,"Ġconfront":9443,"Ġmarch":9444,"echism":9445,"Ġvisiting":9446,"Ġbreed":9447,"Ġhandled":9448,"Ġreferring":9449,"Ġarmies":9450,"Ġ1901":9451,"Ġfriendly":9452,"Ġwider":9453,"ĠHarv":9454,"Ġswim":9455,"ĠKeith":9456,"ĠSwiss":9457,"Ġreducing":9458,"ĠMadison":9459,"Ġcircle":9460,"Ġ1861":9461,"Ġsynagogue":9462,"Ġ1830":9463,"ĠPeters":9464,"ĠStudio":9465,"ĠBenjamin":9466,"ĠFrancis":9467,"chell":9468,"Ġ978":9469,"ĠReturn":9470,"ĠJourney":9471,"ĠVillage":9472,"ĠMcCartney":9473,"imetres":9474,"ĠJurchen":9475,"Ġhelicopters":9476,"ĠSimilarly":9477,"LIMO":9478,"Ġsettlements":9479,"ĠMulder":9480,"Ġemergency":9481,"Ġenthus":9482,"ĠProgram":9483,"ĠCeltic":9484,"ĠHouston":9485,"Ġunlikely":9486,"ĠFRELIMO":9487,"IA":9488,"PA":9489,"father":9490,"iac":9491,"mn":9492,"nels":9493,"vant":9494,"Ġid":9495,"Ġsang":9496,"Ġwel":9497,"atically":9498,"orage":9499,"Ġcaves":9500,"Ġcotton":9501,"Ġbanks":9502,"Ġinning":9503,"Ġpap":9504,"icia":9505,"Ġmac":9506,"Ġhook":9507,"ĠTree":9508,"ĠAuthor":9509,"ĠSour":9510,"ĠSout":9511,"ĠSAS":9512,"ĠCP":9513,"Ġgap":9514,"owa":9515,"ĠPC":9516,"Ġbeating":9517,"ĠDa":9518,"ĠNav":9519,"ĠLud":9520,"ĠEsh":9521,"oples":9522,"Ġrushing":9523,"Ġplus":9524,"Ġkit":9525,"ĠStal":9526,"Ġspending":9527,"ellar":9528,"ĠHealth":9529,"ĠThose":9530,"Ġoffs":9531,"angel":9532,"ĠOntar":9533,"osexual":9534,"Ġfeathers":9535,"Ġassess":9536,"Ġrecordings":9537,"anyon":9538,"ĠScully":9539,"yline":9540,"ieth":9541,"ieties":9542,"Ġ170":9543,"ernon":9544,"ĠSheff":9545,"Ġheaddress":9546,"Ġobtain":9547,"ĠColl":9548,"ĠGuine":9549,"Ġweekend":9550,"Ġstarring":9551,"Ġ1924":9552,"Ġcapturing":9553,"Ġnortheastern":9554,"Ġsimilarly":9555,"Ġpropag":9556,"Ġcontrols":9557,"ĠLeslie":9558,"Ġstructural":9559,"Ġ1907":9560,"ĠNev":9561,"Ġsumm":9562,"ĠMagn":9563,"Ġpriest":9564,"Ġcreative":9565,"ĠOscar":9566,"Ġnetworks":9567,"Ġkeeping":9568,"Ġdiagn":9569,"Ġbattleship":9570,"ĠOutstanding":9571,"Ġsecretary":9572,"ĠErnest":9573,"Ġpowered":9574,"Ġstrikeouts":9575,"ĠLouisiana":9576,"Ġmelody":9577,"ĠOriginal":9578,"Ġsacred":9579,"Ġceremon":9580,"Ġmobile":9581,"Ġvenues":9582,"Ġcollaboration":9583,"ĠRifles":9584,"Ġdefinition":9585,"Ġnegotiations":9586,"ĠObser":9587,"ĠMLB":9588,"Ġphilosophy":9589,"Ġelaborate":9590,"Ġsatisf":9591,"Ġsimultaneously":9592,"ĠCaesar":9593,"ĠLincoln":9594,"ĠWagner":9595,"Ġspacecraft":9596,"ĠWiÅĽniowiecki":9597,"ĠOntario":9598,"Ch":9599,"bre":9600,"fe":9601,"hang":9602,"nik":9603,"po":9604,"raska":9605,"tong":9606,"zhou":9607,"Ġtelling":9608,"itage":9609,"Ġcup":9610,"Ġcrake":9611,"Ġfro":9612,"Ġbran":9613,"Ġbare":9614,"alley":9615,"rols":9616,"Ġhidden":9617,"oux":9618,"ĠTit":9619,"ĠTogether":9620,"ĠSon":9621,"ĠSign":9622,"sters":9623,"ĠMem":9624,"ĠMall":9625,"ĠMaur":9626,"ĠBeth":9627,"iger":9628,"otyp":9629,"otilla":9630,"Ġbeats":9631,"ĠRap":9632,"ĠDD":9633,"cho":9634,"ĠNatural":9635,"estyle":9636,"Ġride":9637,"Ġsharp":9638,"iper":9639,"ogy":9640,"ĠVand":9641,"oken":9642,"endar":9643,"Ġperimeter":9644,"Ġremove":9645,"Ġ04":9646,"ĠAustro":9647,"Ġtrapped":9648,"Ġmeters":9649,"Ġpromin":9650,"Ġpersonality":9651,"Ġhanded":9652,"Ġanticip":9653,"Ġhelping":9654,"Ġbattlecru":9655,"umps":9656,"ĠMagdal":9657,"Ġvalues":9658,"ĠSwitzer":9659,"Ġfacility":9660,"Ġrocks":9661,"Ġlacked":9662,"Ġprofessor":9663,"Ġruler":9664,"ĠKhan":9665,"Ġdonated":9666,"Ġparticipate":9667,"ĠMeteorological":9668,"Ġ1840":9669,"Ġbombing":9670,"Ġpercentage":9671,"Ġbirthday":9672,"ĠTrek":9673,"Ġcredit":9674,"Ġjobs":9675,"Ġsculptures":9676,"Ġplatoon":9677,"ĠHugh":9678,"Ġnewspapers":9679,"Ġtasked":9680,"Ġturret":9681,"Ġstruggled":9682,"ĠMathews":9683,"ĠMatthew":9684,"Ġexcavations":9685,"Ġmanufactur":9686,"Ġwaiting":9687,"Ġscientists":9688,"Ġduty":9689,"ĠChapel":9690,"ĠBroadway":9691,"ĠSurvey":9692,"Ġvertical":9693,"ĠWalker":9694,"minster":9695,"Ġvegetation":9696,"Ġastronom":9697,"ocaust":9698,"ĠNaktong":9699,"ĠNebraska":9700,"olithic":9701,"ĠHokies":9702,"Ġsurgery":9703,"ES":9704,"Malley":9705,"eign":9706,"gas":9707,"rad":9708,"ski":9709,"uki":9710,"inction":9711,"Ġcake":9712,"Ġbrain":9713,"Ġinclusion":9714,"Ġtooth":9715,"Ġmemb":9716,"Ġmemor":9717,"oust":9718,"ĠTa":9719,"ĠTony":9720,"Ġreass":9721,"ĠAut":9722,"ĠABC":9723,"ĠSony":9724,"ĠCall":9725,"ĠCanyon":9726,"amer":9727,"aman":9728,"acre":9729,"ĠMit":9730,"ĠBible":9731,"ĠBarn":9732,"ĠBanks":9733,"ĠIan":9734,"etime":9735,"Ġgates":9736,"imented":9737,"iri":9738,"ĠHop":9739,"ayan":9740,"ĠPur":9741,"ĠFil":9742,"ĠFem":9743,"Ġconj":9744,"ĠGhost":9745,"Ġanime":9746,"umin":9747,"oded":9748,"Ġrid":9749,"ĠInvest":9750,"Ġshares":9751,"ĠChagas":9752,"Ġabol":9753,"active":9754,"overeign":9755,"phy":9756,"ĠAnne":9757,"Ġassembly":9758,"Ġcoin":9759,"Ġmonit":9760,"Ġexpression":9761,"Ġreceives":9762,"Ġextensively":9763,"Ġwarfare":9764,"Ġoperational":9765,"Ġmayor":9766,"Ġdiscussion":9767,"Ġsimpl":9768,"Ġrestore":9769,"ĠHerze":9770,"ĠChristians":9771,"Ġreflected":9772,"Ġcommandment":9773,"Ġparody":9774,"ĠWithout":9775,"ĠAbby":9776,"Ġconventional":9777,"ĠTrust":9778,"arris":9779,"Ġprofit":9780,"Ġcyt":9781,"ĠRegister":9782,"Ġprogramming":9783,"Ġshoulder":9784,"Ġgoods":9785,"ĠHarold":9786,"Ġrevised":9787,"ĠMagad":9788,"Ġcolleagues":9789,"Ġsupern":9790,"Ġsuperv":9791,"ĠActor":9792,"Ġ350":9793,"ĠEmmy":9794,"ĠAgency":9795,"Ġexcell":9796,"Ġgrave":9797,"ĠAngela":9798,"Ġdispute":9799,"Ġquarterback":9800,"Ġbowl":9801,"Ġtalks":9802,"Ġtournaments":9803,"Ġevacuated":9804,"Ġwalking":9805,"Ġtranslation":9806,"ĠFinals":9807,"ĠIndependence":9808,"Ġexhibition":9809,"Ġpounds":9810,"ĠKentucky":9811,"Ġneighb":9812,"Ġimagery":9813,"Ġexecution":9814,"ĠYankees":9815,"ĠChildren":9816,"ĠGiants":9817,"Ġvirtually":9818,"ĠMichel":9819,"Ġundertaken":9820,"ĠTransportation":9821,"Ġaccurate":9822,"ĠBrooks":9823,"amaru":9824,"ĠDakota":9825,"ĠShikamaru":9826,"ĠValkyria":9827,"ĠNielsen":9828,"ĠWanderers":9829,"govina":9830,"ĠSheffield":9831,"ĠSwitzerland":9832,"CO":9833,"EFA":9834,"NC":9835,"bing":9836,"ci":9837,"equ":9838,"gon":9839,"gars":9840,"ht":9841,"hum":9842,"kes":9843,"Ġtor":9844,"Ġtale":9845,"Ġaf":9846,"erg":9847,"Ġcave":9848,"enz":9849,"aria":9850,"Ġbra":9851,"Ġboss":9852,"Ġboys":9853,"Ġinfer":9854,"Ġdict":9855,"lee":9856,"ĠSant":9857,"ĠCond":9858,"Ġnurs":9859,"acruz":9860,"irates":9861,"ĠPryce":9862,"ĠRivers":9863,"ĠDog":9864,"ĠDram":9865,"ĠDiam":9866,"ĠFace":9867,"ĠLibrary":9868,"osom":9869,"illiant":9870,"Ġdeity":9871,"Ġrising":9872,"Ġracing":9873,"berry":9874,"ĠKit":9875,"Ġchrom":9876,"ĠUEFA":9877,"ĠStr":9878,"sex":9879,"ipes":9880,"Ġclin":9881,"ĠHeart":9882,"ĠHeaven":9883,"Ġresolution":9884,"enden":9885,"Ġroots":9886,"Ġmanip":9887,"Ġoffering":9888,"angular":9889,"Ġevolved":9890,"inted":9891,"Ġdecay":9892,"Ġretain":9893,"Ġsupplement":9894,"ahi":9895,"Ġobvious":9896,"Ġdiff":9897,"Ġinsurg":9898,"Ġweekly":9899,"Ġkills":9900,"Ġpersonally":9901,"Ġfewer":9902,"ĠPriv":9903,"ĠAbd":9904,"Ġpatrols":9905,"Ġcompeted":9906,"Ġfactory":9907,"ĠEvans":9908,"Ġtrend":9909,"Ġidentify":9910,"ĠMadrid":9911,"Ġclosing":9912,"Ġappointment":9913,"Ġmotif":9914,"Ġdevast":9915,"Ġgraves":9916,"Ġmachines":9917,"ĠÃī":9918,"Ġcontrad":9919,"ĠHolocaust":9920,"Ġ360":9921,"ĠPriest":9922,"ĠVeracruz":9923,"underst":9924,"Ġintersects":9925,"Ġtemperatures":9926,"ĠConservation":9927,"ĠWaterfall":9928,"Ġsquadrons":9929,"ĠCheval":9930,"Ġprisoners":9931,"Ġmechanical":9932,"ĠProvince":9933,"Ġaccomplish":9934,"ĠBertin":9935,"burgh":9936,"Ġappropriate":9937,"ĠTokyo":9938,"ĠHerzegovina":9939,"ĠMagadheera":9940,"ko":9941,"where":9942,"ËĪ":9943,"Ġtut":9944,"Ġtort":9945,"Ġwish":9946,"Ġwreck":9947,"atch":9948,"Ġcook":9949,"enged":9950,"enger":9951,"Ġfulf":9952,"aration":9953,"Ġbishop":9954,"Ġpion":9955,"Ġpace":9956,"Ġphen":9957,"Ġparent":9958,"asp":9959,"ĠTat":9960,"ĠTag":9961,"ĠAh":9962,"entle":9963,"Ġloud":9964,"Ġliqu":9965,"omtav":9966,"Ġforth":9967,"otte":9968,"ĠHave":9969,"usan":9970,"ĠPubl":9971,"ĠDub":9972,"ĠDah":9973,"una":9974,"Ġwhilst":9975,"Ġalph":9976,"ĠLas":9977,"ĠGirl":9978,"agen":9979,"resent":9980,"Ġveter":9981,"ĠIntern":9982,"ighters":9983,"ocation":9984,"ĠKu":9985,"Ġplacing":9986,"Ġyd":9987,"iney":9988,"ĠCharts":9989,"ogan":9990,"Ġcomponents":9991,"oking":9992,"okovic":9993,"Ġrouting":9994,"Ġperp":9995,"ultan":9996,"Ġagency":9997,"Ġovert":9998,"ĠYo":9999,"ĠYouth":10000,"Ġevolution":10001,"Ġfee":10002,"ĠAsomtav":10003,"Ġdecisions":10004,"ugu":10005,"ĠMars":10006,"ĠMarie":10007,"Ġproduces":10008,"Ġraising":10009,"Ġraids":10010,"Ġincom":10011,"Ġ129":10012,"ĠJoh":10013,"azirid":10014,"Ġorigins":10015,"ĠConstitution":10016,"Ġstring":10017,"Ġapproaching":10018,"Ġexplicit":10019,"Ġsentences":10020,"Ġopposing":10021,"eteries":10022,"ĠCountry":10023,"Ġtwent":10024,"Ġbehalf":10025,"Ġvictim":10026,"Ġsket":10027,"ĠWestminster":10028,"Ġsolar":10029,"Ġdestroyer":10030,"ĠScientologists":10031,"Ġadmin":10032,"ĠGlass":10033,"Ġrede":10034,"grad":10035,"Ġvalid":10036,"Ġfacil":10037,"Ġasking":10038,"Ġflooded":10039,"Ġreactions":10040,"Ġtransported":10041,"Ġmaintaining":10042,"Ġobjectives":10043,"ASP":10044,"ĠCongo":10045,"Ġcredits":10046,"Ġkilometers":10047,"Ġsevent":10048,"ĠDjokovic":10049,"ĠBooks":10050,"ĠCatechism":10051,"Ġinhab":10052,"Ġpatterns":10053,"Ġprinted":10054,"Ġpreparing":10055,"Ġflew":10056,"ĠOfficial":10057,"Ġwealthy":10058,"Ġfrigates":10059,"Ġproportion":10060,"Ġaccompanying":10061,"Ġbrigades":10062,"Ġinterpreted":10063,"Ġneighborhood":10064,"Ġdeterior":10065,"Ġoxygen":10066,"ĠNapoleon":10067,"ĠAsomtavruli":10068,"hous":10069,"Ġsample":10070,"eded":10071,"Ġwishes":10072,"Ġcous":10073,"Ġfles":10074,"esters":10075,"Ġtom":10076,"Ġtouring":10077,"rov":10078,"icians":10079,"Ġdust":10080,"Ġduration":10081,"Ġhosp":10082,"ĠhPa":10083,"ĠTNA":10084,"ĠAle":10085,"ĠAman":10086,"ĠSay":10087,"ĠSomet":10088,"ĠCred":10089,"adi":10090,"ĠMant":10091,"Ġonwards":10092,"Ġgirls":10093,"Ġstim":10094,"ĠRag":10095,"ĠDw":10096,"ĠDin":10097,"ĠDor":10098,"ĠDud":10099,"ĠNS":10100,"ĠNat":10101,"ĠLin":10102,"ĠLane":10103,"ĠJen":10104,"umented":10105,"ĠEug":10106,"ĠOmar":10107,"Ġvel":10108,"arded":10109,"ĠKin":10110,"ĠKon":10111,"Ġshift":10112,"ĠChampions":10113,"Ġunex":10114,"ĠVic":10115,"Ġcompens":10116,"Ġcomponent":10117,"Ġaboard":10118,"Ġdisband":10119,"ibl":10120,"ĠYellow":10121,"aceous":10122,"Ġenroll":10123,"Ġpretty":10124,"Ġcommenced":10125,"oyd":10126,"Ġdece":10127,"ĠMariana":10128,"Ġtrunk":10129,"obi":10130,"Ġrains":10131,"Ġcoff":10132,"Ġfourteen":10133,"Ġindeed":10134,"Ġ128":10135,"Ġrecept":10136,"Ġ118":10137,"Ġrepairs":10138,"emble":10139,"ĠShell":10140,"Ġsignal":10141,"Ġmathem":10142,"ĠCarre":10143,"Ġgovernments":10144,"Ġadvoc":10145,"Ġdams":10146,"yself":10147,"Ġcommanders":10148,"Ġeventual":10149,"Ġexplain":10150,"Ġ1922":10151,"Ġsoldier":10152,"Ġanthem":10153,"Ġexperiment":10154,"Ġordering":10155,"Ġtourist":10156,"Ġcommentary":10157,"Ġ1889":10158,"Ġrepresentation":10159,"Ġescaped":10160,"Ġhoused":10161,"ĠMetro":10162,"Ġdocumented":10163,"Ġarchaeologist":10164,"ĠPrize":10165,"Ġambassador":10166,"Ġceratops":10167,"Ġpolicies":10168,"Ġboxing":10169,"Ġessay":10170,"ĠCharlotte":10171,"Ġastero":10172,"Ġ766":10173,"Ġreinforced":10174,"Ġdisplaced":10175,"ĠJoshua":10176,"bourne":10177,"Ġrhyme":10178,"Ġuniversities":10179,"Ġhoriz":10180,"ĠImagine":10181,"Ġreforms":10182,"Ġvolunteers":10183,"ĠCubs":10184,"Ġhydrogen":10185,"Ġvicinity":10186,"Ġdubbed":10187,"Ġconversation":10188,"arthy":10189,"ĠIslamic":10190,"Ġclothing":10191,"Ġmystery":10192,"Ġphrase":10193,"ĠEshmun":10194,"ĠGuinea":10195,"60":10196,"ME":10197,"gian":10198,"rh":10199,"Ġï":10200,"Ġwors":10201,"aters":10202,"itter":10203,"Ġca":10204,"Ġchest":10205,"Ġcavalry":10206,"Ġinher":10207,"Ġmand":10208,"ĠSyn":10209,"ĠCant":10210,"ĠCyr":10211,"Ġlin":10212,"Ġlad":10213,"elson":10214,"Ġgat":10215,"imon":10216,"ĠHur":10217,"ĠPas":10218,"ĠPle":10219,"Ġbeam":10220,"emen":10221,"Ġbypass":10222,"ĠNi":10223,"ĠNDH":10224,"ĠLim":10225,"aguchi":10226,"Ġvital":10227,"Ġrushed":10228,"ocent":10229,"ĠKings":10230,"Ġplatinum":10231,"Ġshorter":10232,"ĠStav":10233,"astra":10234,"ova":10235,"Ġspots":10236,"class":10237,"Ġcomprom":10238,"Ġcompilation":10239,"orks":10240,"Ġattorney":10241,"Ġfeeding":10242,"ĠSev":10243,"ĠSeven":10244,"Ġcanal":10245,"Ġassert":10246,"Ġpeoples":10247,"Ġbuy":10248,"Ġacids":10249,"Ġintercept":10250,"ĠLeigh":10251,"Ġpublishing":10252,"aho":10253,"Ġartistic":10254,"Ġrunners":10255,"ĠBlu":10256,"ĠBlues":10257,"Ġsixteen":10258,"Ġedited":10259,"Ġcharacteristic":10260,"ĠHerald":10261,"ĠHeritage":10262,"byter":10263,"ometric":10264,"Ġmarry":10265,"Ġapproaches":10266,"ungle":10267,"Ġhumor":10268,"incial":10269,"Ġlegit":10270,"Ġ240":10271,"ĠXenon":10272,"aughters":10273,"ĠCentre":10274,"ĠRomanian":10275,"Ġaffili":10276,"Ġpresentation":10277,"Ġreader":10278,"ĠExper":10279,"ĠFederation":10280,"Ġredes":10281,"Ġconnecting":10282,"ĠMorgan":10283,"ĠMcCarthy":10284,"Ġanimated":10285,"Ġtested":10286,"Ġclosure":10287,"Ġindustries":10288,"ĠPeach":10289,"Ġpoetic":10290,"legraph":10291,"Ġblocked":10292,"Ġdepicting":10293,"ĠInterchange":10294,"Ġobservation":10295,"ĠRobinson":10296,"Ġboundaries":10297,"ĠSpecies":10298,"ĠFinally":10299,"Ġchampionships":10300,"Ġadministrative":10301,"Ġaggreg":10302,"ĠColumbus":10303,"Ġtimber":10304,"Ġadvertis":10305,"Ġcomprised":10306,"Ġhamlet":10307,"ĠWorks":10308,"ropolis":10309,"Ġsolely":10310,"Ġdisturbance":10311,"Ġcemeteries":10312,"Ġsubsid":10313,"Ġchoose":10314,"ĠLeonard":10315,"ĠSorra":10316,"Ġbalance":10317,"Ġsuddenly":10318,"ĠAmbassador":10319,"ĠDescription":10320,"Ġindigenous":10321,"Ġvulner":10322,"ĠWicca":10323,"ĠNevada":10324,"ĠChevaliers":10325,"fly":10326,"mates":10327,"tic":10328,"inces":10329,"Ġsized":10330,"Ġsitting":10331,"aro":10332,"Ġbore":10333,"Ġpse":10334,"Ġpull":10335,"Ġpages":10336,"Ġhi":10337,"ĠSau":10338,"ĠSection":10339,"stal":10340,"ĠCad":10341,"ĠCress":10342,"Ġlamb":10343,"lyn":10344,"ĠBald":10345,"ĠBuck":10346,"Ġgang":10347,"Ġgift":10348,"ĠPam":10349,"ĠPak":10350,"ĠPrest":10351,"ĠFif":10352,"ĠFreak":10353,"Ġisot":10354,"ĠNu":10355,"ĠNett":10356,"ĠWelling":10357,"ĠLocal":10358,"ĠGaz":10359,"ĠJard":10360,"ĠEconom":10361,"ĠOw":10362,"Ġseas":10363,"Ġseats":10364,"ĠKnow":10365,"Ġchain":10366,"mented":10367,"Ġspawn":10368,"Ġcler":10369,"ĠHey":10370,"Ġresol":10371,"Ġabilities":10372,"landers":10373,"ilda":10374,"athy":10375,"Ġthemed":10376,"Ġacted":10377,"Ġacceler":10378,"Ġ106":10379,"Ġepic":10380,"Ġsigns":10381,"Ġmature":10382,"Ġrunway":10383,"ĠClaud":10384,"ĠCarmel":10385,"ĠCommons":10386,"Ġhelium":10387,"Ġdetected":10388,"Ġportions":10389,"ĠChristine":10390,"ĠMcK":10391,"rett":10392,"appy":10393,"Ġtracked":10394,"Ġstarter":10395,"Ġreplacing":10396,"Ġcourses":10397,"Ġ230":10398,"Ġtraded":10399,"Ġstatements":10400,"restrial":10401,"Ġsolution":10402,"Ġobsc":10403,"aski":10404,"Ġpitching":10405,"ĠImm":10406,"Ġfunctions":10407,"Ġprofession":10408,"mediate":10409,"Ġembarked":10410,"ĠRhys":10411,"opping":10412,"ĠPoet":10413,"ĠStudies":10414,"Ġarchaeologists":10415,"ĠCollection":10416,"Ġsemif":10417,"Ġpairs":10418,"Ġindicates":10419,"ĠForeign":10420,"ĠRAR":10421,"ĠPhilippine":10422,"Ġpilots":10423,"Ġtranslated":10424,"Ġpleasure":10425,"Ġpunishment":10426,"Ġrecommend":10427,"ĠHawaiian":10428,"ĠCommunity":10429,"Ġwait":10430,"Ġillustrated":10431,"Ġflagship":10432,"Ġbeliefs":10433,"ĠSweden":10434,"Ġmolecules":10435,"ĠDodgers":10436,"Ġaerial":10437,"Ġunnamed":10438,"ĠAbbey":10439,"ĠPulaski":10440,"ĠDynasty":10441,"Ġrebellion":10442,"ĠMalaysia":10443,"Ġbombs":10444,"Ġjunior":10445,"Ġentertainment":10446,"Grom":10447,"chens":10448,"dict":10449,"eu":10450,"ele":10451,"krit":10452,"lights":10453,"uations":10454,"zer":10455,"zong":10456,"Ġæ":10457,"Ġsin":10458,"Ġwives":10459,"orig":10460,"itic":10461,"Ġcro":10462,"Ġcir":10463,"eness":10464,"esi":10465,"Ġinduct":10466,"Ġpron":10467,"roke":10468,"Ġdual":10469,"Ġdanger":10470,"Ġdaughters":10471,"ĠSisler":10472,"ĠCem":10473,"ĠCater":10474,"ĠCullen":10475,"Ġnaming":10476,"ĠBapt":10477,"Ġforg":10478,"othe":10479,"ĠPanz":10480,"ĠFood":10481,"ĠNag":10482,"ĠNose":10483,"ĠWN":10484,"ĠList":10485,"ĠGill":10486,"umble":10487,"riarch":10488,"odrom":10489,"Ġriding":10490,"ĠIns":10491,"Ġsew":10492,"Ġseized":10493,"ĠKle":10494,"ĠKÅį":10495,"Ġexport":10496,"Ġshrine":10497,"Ġshallow":10498,"Ġkid":10499,"ĠChron":10500,"ĠVel":10501,"Ġintegr":10502,"Ġclay":10503,"Ġclothes":10504,"Ġperceived":10505,"ĠThir":10506,"achment":10507,"Ġattitude":10508,"Ġenzy":10509,"Ġknock":10510,"Ġknocked":10511,"Ġcolossal":10512,"Ġpositively":10513,"Ġcancel":10514,"ansfield":10515,"Ġregistered":10516,"Ġ104":10517,"Ġtrails":10518,"ĠZoo":10519,"Ġtransmission":10520,"ĠIndians":10521,"Ġcontinuous":10522,"ĠJohnny":10523,"Ġpassion":10524,"Ġfamiliar":10525,"Ġphone":10526,"ĠAdela":10527,"Ġvaried":10528,"ĠGuadal":10529,"ĠMcN":10530,"Ġcaps":10531,"Ġrequires":10532,"Ġeastward":10533,"ĠEdge":10534,"Ġconvey":10535,"Ġconvention":10536,"Ġforecast":10537,"ĠParker":10538,"Ġreportedly":10539,"Ġaffairs":10540,"ficial":10541,"Ġcharted":10542,"Ġideal":10543,"hemical":10544,"Ġrevival":10545,"Ġestimates":10546,"Ġreduction":10547,"ĠRepresent":10548,"Ġrulers":10549,"Ġhyg":10550,"ĠValve":10551,"ĠOperations":10552,"Ġarchaeology":10553,"Ġcertainly":10554,"ĠPrix":10555,"ĠBurm":10556,"Ġquestions":10557,"Ġceleb":10558,"ĠWoodhouse":10559,"ĠBobby":10560,"Ġweakening":10561,"Ġsalv":10562,"Ġqualified":10563,"ĠWWF":10564,"Ġcandidates":10565,"ĠIntelligence":10566,"Ġmeasurements":10567,"Ġsubmarines":10568,"ĠGardner":10569,"ĠHonor":10570,"ĠBruce":10571,"ĠBelgian":10572,"Ġtonnes":10573,"Ġjuven":10574,"ĠImpact":10575,"ĠTetrarchs":10576,"Ġupdated":10577,"ĠTigers":10578,"ĠKawaguchi":10579,"Ġashore":10580,"Ġphotographs":10581,"ĠDigital":10582,"Ġcancelled":10583,"ĠSanskrit":10584,"ĠCredits":10585,"ĠDudley":10586,"ĠSorraia":10587,"ĠNosek":10588,"ĠAdelaide":10589,"ED":10590,"FL":10591,"Sh":10592,"budo":10593,"ds":10594,"tz":10595,"á¹":10596,"Ġump":10597,"Ġtet":10598,"Ġaw":10599,"oned":10600,"reated":10601,"Ġcode":10602,"Ġfusion":10603,"isen":10604,"arc":10605,"Ġbarr":10606,"Ġtox":10607,"Ġdod":10608,"ĠTow":10609,"ĠTask":10610,"Ġreward":10611,"Ġreaches":10612,"ĠSel":10613,"ĠSac":10614,"ĠSter":10615,"ĠCart":10616,"Ġliv":10617,"Ġlying":10618,"eling":10619,"ĠMix":10620,"ĠBird":10621,"ĠBidd":10622,"olin":10623,"terior":10624,"uther":10625,"ĠPu":10626,"ĠPole":10627,"ĠRat":10628,"ĠRav":10629,"ĠDover":10630,"ĠDance":10631,"ĠFul":10632,"ĠFord":10633,"ĠWASP":10634,"raid":10635,"ĠLakes":10636,"ĠGot":10637,"andra":10638,"ĠanekÄģntavÄģda":10639,"avor":10640,"odont":10641,"oping":10642,"Ġram":10643,"ante":10644,"ĠKau":10645,"earing":10646,"Ġshop":10647,"ishops":10648,"ĠVis":10649,"ĠVeer":10650,"soft":10651,"Ġcompre":10652,"orms":10653,"Ġusual":10654,"Ġjew":10655,"aceae":10656,"Ġrelatives":10657,"Ġendors":10658,"Ġqueen":10659,"Ġaccum":10660,"ĠJoint":10661,"Ġbacked":10662,"Ġ167":10663,"Ġ168":10664,"Ġdepiction":10665,"Ġminimal":10666,"venge":10667,"Ġextending":10668,"ĠBristol":10669,"ĠPlate":10670,"Ġsuccessive":10671,"Ġfinale":10672,"ĠDead":10673,"ĠDeep":10674,"Ġbrut":10675,"ĠMcE":10676,"Ġslopes":10677,"Ġcommands":10678,"ĠParamount":10679,"Ġreplied":10680,"hester":10681,"Ġroadway":10682,"Ġarchbishop":10683,"ĠXII":10684,"Ġsignificance":10685,"Ġ1902":10686,"Ġ1906":10687,"Ġgenetic":10688,"ĠImbudo":10689,"rieved":10690,"ĠNeves":10691,"Ġtenure":10692,"Ġranks":10693,"Ġcommenting":10694,"Ġsuperst":10695,"Ġaudio":10696,"Ġlacking":10697,"Ġ1888":10698,"Ġzones":10699,"Ġemployment":10700,"Ġillness":10701,"Ġmachinery":10702,"guard":10703,"Ġfailing":10704,"Ġunclear":10705,"Ġunderstood":10706,"ĠTwenty":10707,"Ġpursuit":10708,"Ġrecovery":10709,"Ġdeployment":10710,"Ġsearching":10711,"ĠDefense":10712,"Ġrescued":10713,"Ġfastest":10714,"Ġdissipating":10715,"Ġdiamond":10716,"ĠArgentine":10717,"yclic":10718,"ĠIdaho":10719,"ĠObserv":10720,"ĠBriggs":10721,"Ġenlisted":10722,"ĠSioux":10723,"Ġvertebra":10724,"Ġimmigration":10725,"ĠIngres":10726,"Ġdoctrine":10727,"ĠChronicles":10728,"Ġcinema":10729,"ĠTelugu":10730,"Ġrelieved":10731,"ĠProfessor":10732,"Ġtissue":10733,"Ġtubes":10734,"Ġflesh":10735,"Ġhospitals":10736,"ĠCresswell":10737,"ĠNettles":10738,"ĠJardine":10739,"ĠBiddenden":10740,"AR":10741,"Ar":10742,"Tube":10743,"bie":10744,"ja":10745,"Ġsoci":10746,"Ġwore":10747,"Ġwrestling":10748,"Ġfir":10749,"Ġfame":10750,"isle":10751,"Ġpush":10752,"asa":10753,"Ġmental":10754,"Ġda":10755,"Ġhitting":10756,"Ġrevenue":10757,"ĠSultan":10758,"Ġlover":10759,"Ġgor":10760,"Ġgaining":10761,"Ġghost":10762,"ĠHM":10763,"ĠHem":10764,"ĠRandy":10765,"ĠDersh":10766,"ĠDennis":10767,"rav":10768,"ĠLad":10769,"ĠGround":10770,"herry":10771,"agers":10772,"rip":10773,"Ġcomfort":10774,"Ġproceeded":10775,"Ġrivals":10776,"ocity":10777,"Ġexclud":10778,"Ġexecut":10779,"Ġshru":10780,"ounced":10781,"ĠVisc":10782,"sole":10783,"Ġabroad":10784,"Ġrotation":10785,"Ġpermitted":10786,"place":10787,"Ġ1800":10788,"izal":10789,"ĠAlmost":10790,"Ġjungle":10791,"phant":10792,"ressions":10793,"Ġprefect":10794,"oyle":10795,"Ġacute":10796,"Ġdoctor":10797,"ĠZap":10798,"ĠZanz":10799,"Ġpresents":10800,"Ġbacking":10801,"ylogen":10802,"Ġ169":10803,"azer":10804,"Ġmainstream":10805,"ĠIndies":10806,"Ġsignature":10807,"Ġwarned":10808,"Ġconstantly":10809,"ĠPlaces":10810,"Ġsuccession":10811,"ĠProte":10812,"ĠGuild":10813,"Ġpublicly":10814,"Ġports":10815,"ĠCanning":10816,"ambo":10817,"Ġboil":10818,"Ġdemanded":10819,"ographical":10820,"Ġstronger":10821,"ĠParks":10822,"Ġhistorically":10823,"Ġfactor":10824,"Ġ1903":10825,"regular":10826,"ĠYouTube":10827,"ĠMagic":10828,"Ġ1895":10829,"brace":10830,"Ġhostile":10831,"Ġarguing":10832,"Ġbiological":10833,"Ġcopy":10834,"Ġpersist":10835,"Ġpersons":10836,"ĠValent":10837,"ĠRussell":10838,"Ġheavier":10839,"Ġgolden":10840,"Ġautumn":10841,"Ġflowers":10842,"Ġconsistent":10843,"Ġcontroller":10844,"Ġwalks":10845,"ĠJosÃ©":10846,"ĠTriple":10847,"Ġmagnetic":10848,"Ġmanufacturing":10849,"Ġsailors":10850,"Ġhorror":10851,"Ġvenue":10852,"ĠUsher":10853,"Ġmolecular":10854,"Ġownership":10855,"Ġhouseholds":10856,"Ġrepeatedly":10857,"Ġsynthesis":10858,"Ġcategory":10859,"ĠAlberta":10860,"Ġexactly":10861,"Ġtalent":10862,"Ġpregnant":10863,"ĠPattyc":10864,"Ġshifted":10865,"Ġpuzzles":10866,"Ġexhausted":10867,"ĠARVN":10868,"Ġbombardment":10869,"ĠUtah":10870,"Ġmerchant":10871,"Ġrecurring":10872,"ĠArkansas":10873,"ĠBennett":10874,"ĠMitchell":10875,"Ġphenomen":10876,"ĠAmanita":10877,"ĠWellington":10878,"ĠChrono":10879,"ĠBurmese":10880,"ĠNevesinje":10881,"ĠDershowitz":10882,"ĠZanzib":10883,"ĠPattycake":10884,"EA":10885,"Xe":10886,"bro":10887,"bow":10888,"cut":10889,"cover":10890,"din":10891,"hr":10892,"oons":10893,"uters":10894,"Ġtape":10895,"inaw":10896,"Ġstern":10897,"Ġsick":10898,"Ġwaves":10899,"itely":10900,"Ġcensus":10901,"Ġfru":10902,"ario":10903,"Ġincl":10904,"Ġindu":10905,"Ġpushing":10906,"Ġdressed":10907,"ĠTong":10908,"ĠTak":10909,"ĠTales":10910,"Ġreper":10911,"ĠAud":10912,"Ġnose":10913,"ĠBox":10914,"ĠBatter":10915,"ĠIowa":10916,"ivation":10917,"ĠHad":10918,"ĠHoll":10919,"ĠHannah":10920,"owed":10921,"Ġstabil":10922,"Ġstellar":10923,"ĠPic":10924,"Ġbeings":10925,"Ġheir":10926,"ĠFut":10927,"Ġconce":10928,"ĠWik":10929,"ĠGael":10930,"ested":10931,"atever":10932,"ĠKid":10933,"ĠKrist":10934,"Ġchampions":10935,"Ġshield":10936,"Ġshirt":10937,"ĠStand":10938,"Ġspan":10939,"Ġlect":10940,"Ġintr":10941,"ibilities":10942,"Ġenorm":10943,"awak":10944,"atha":10945,"Ġretail":10946,"Ġspeculation":10947,"Ġaccus":10948,"erto":10949,"Ġ154":10950,"Ġ111":10951,"Ġ174":10952,"Ġmini":10953,"Ġextend":10954,"Ġdistrib":10955,"Ġfinest":10956,"enna":10957,"Ġ131":10958,"linger":10959,"Ġincreases":10960,"Ġmargin":10961,"ĠYorkshire":10962,"ĠAndre":10963,"Ġdrinking":10964,"ospel":10965,"ambia":10966,"Ġreviewed":10967,"Ġcoverage":10968,"ĠWeir":10969,"Ġmyster":10970,"Ġ220":10971,"Ġposts":10972,"atorial":10973,"Ġ1904":10974,"ĠJackets":10975,"ĠNeil":10976,"Ġrevived":10977,"Ġcampaigns":10978,"ĠCoal":10979,"Ġpromotional":10980,"brush":10981,"Ġanimation":10982,"Ġtestified":10983,"Ġcutting":10984,"Ġargument":10985,"Ġpersisted":10986,"ĠPohl":10987,"Ġpeninsula":10988,"Ġbombers":10989,"Ġguitarist":10990,"Ġseriously":10991,"Ġlifetime":10992,"Ġchallenged":10993,"Ġprecip":10994,"Ġgrandfather":10995,"Ġirregular":10996,"Ġprinting":10997,"Ġquestioned":10998,"Ġcompositions":10999,"ĠLloyd":11000,"Ġpictures":11001,"Ġhamper":11002,"Ġarrangements":11003,"Ġresemble":11004,"ĠGarden":11005,"Ġpetition":11006,"Ġoccasional":11007,"Ġfarmers":11008,"Ġsubtropical":11009,"ĠKenneth":11010,"Ġsteadily":11011,"Ġsongwriter":11012,"Ġrenewed":11013,"Ġgravity":11014,"Ġdensity":11015,"Ġpredominantly":11016,"Ġibis":11017,"ĠâĤ¹":11018,"Ġbonus":11019,"Ġfuneral":11020,"ĠPreston":11021,"ĠCemetery":11022,"CE":11023,"CU":11024,"RNA":11025,"VP":11026,"dream":11027,"net":11028,"ss":11029,"xim":11030,"inness":11031,"inÃ¡":11032,"eries":11033,"Ġsings":11034,"oric":11035,"Ġbull":11036,"alo":11037,"Ġtours":11038,"rooms":11039,"Ġmud":11040,"Ġmyself":11041,"Ġreag":11042,"Ġreop":11043,"ĠSag":11044,"ĠShip":11045,"ĠSkin":11046,"ĠCry":11047,"ĠCricket":11048,"Ġnave":11049,"ĠMission":11050,"ĠMembers":11051,"uras":11052,"ĠBour":11053,"ĠIRA":11054,"olly":11055,"iga":11056,"ĠHarris":11057,"Ġstorage":11058,"ĠPound":11059,"ĠRab":11060,"ĠNadal":11061,"ĠNelson":11062,"ĠWol":11063,"ĠLooking":11064,"osph":11065,"agger":11066,"ĠEth":11067,"Ġdeals":11068,"ĠKate":11069,"ĠKiss":11070,"Ġchicks":11071,"Ġexternal":11072,"ipel":11073,"apolis":11074,"Ġunw":11075,"Ġunrest":11076,"Ġintellig":11077,"ĠHeb":11078,"Ġscrap":11079,"Ġagencies":11080,"Ġjet":11081,"Ġjaw":11082,"arest":11083,"Ġovers":11084,"Ġouts":11085,"Ġearn":11086,"Ġacre":11087,"ĠLeeds":11088,"ĠReb":11089,"Ġ108":11090,"aja":11091,"Ġpreserve":11092,"azing":11093,"Ġpopul":11094,"Ġmetall":11095,"Ġdescript":11096,"Ġcontinu":11097,"Ġcontinental":11098,"ĠWarrior":11099,"Ġextinct":11100,"ĠIsesi":11101,"Ġdiscont":11102,"Ġ135":11103,"asha":11104,"Ġadvised":11105,"Ġguide":11106,"Ġguarant":11107,"Ġportr":11108,"Ġexploration":11109,"Ġmarking":11110,"Ġlegacy":11111,"Ġinvolves":11112,"Ġauthorized":11113,"Ġannouncement":11114,"Ġpraising":11115,"Ġsummar":11116,"Ġoccurring":11117,"Ġprocessing":11118,"Ġaudition":11119,"ĠMadero":11120,"Ġvolumes":11121,"mingham":11122,"ĠSerbs":11123,"Ġrepresentatives":11124,"Ġcommerce":11125,"Ġceased":11126,"Ġcease":11127,"ĠDaydream":11128,"Ġmeasuring":11129,"Ġhomosexual":11130,"ĠCrusad":11131,"Ġthreats":11132,"ĠLaure":11133,"ĠGrace":11134,"ĠTommy":11135,"ĠPete":11136,"Ġmurd":11137,"Ġexamination":11138,"ĠEverton":11139,"ĠJeremy":11140,"ĠSenator":11141,"ĠHoover":11142,"Ġmorph":11143,"Ġtaxon":11144,"Ġlandscape":11145,"ĠContem":11146,"Ġconstitu":11147,"Ġangle":11148,"Ġremarkable":11149,"Ġmemories":11150,"Ġmortar":11151,"ĠBirmingham":11152,"ĠRailroad":11153,"Ġruins":11154,"ĠGregory":11155,"Ġexplosive":11156,"ĠCooke":11157,"Ġstreams":11158,"ĠSpacey":11159,"Ġsanct":11160,"Ġhelicopter":11161,"Ġcommitment":11162,"ĠLessing":11163,"Ġpregnancy":11164,"ĠEccl":11165,"Ġabsorbed":11166,"Ġrecruited":11167,"ĠToninÃ¡":11168,"ĠAdministration":11169,"penter":11170,"ĠPerformance":11171,"Ġvelocity":11172,"ĠBaptist":11173,"ĠGaelic":11174,"col":11175,"face":11176,"pur":11177,"wall":11178,"ÉĻ":11179,"Ġath":11180,"Ġsav":11181,"atum":11182,"ito":11183,"itis":11184,"Ġfaster":11185,"anch":11186,"Ġboot":11187,"Ġpp":11188,"asco":11189,"Ġmood":11190,"ĠTar":11191,"ĠTac":11192,"ĠSet":11193,"ĠSud":11194,"stown":11195,"ĠCu":11196,"Ġlumber":11197,"ĠBes":11198,"ĠBog":11199,"ĠBull":11200,"Ġgene":11201,"Ġgusts":11202,"ĠHub":11203,"Ġascend":11204,"ĠPa":11205,"ĠPil":11206,"ĠPra":11207,"ationally":11208,"ĠRic":11209,"ĠRAF":11210,"emi":11211,"ĠDS":11212,"ĠFried":11213,"Ġalignment":11214,"ĠName":11215,"ĠNine":11216,"ĠLam":11217,"ĠLover":11218,"ĠLiving":11219,"ĠLiter":11220,"andal":11221,"ĠOk":11222,"ĠOst":11223,"ework":11224,"ĠStill":11225,"oves":11226,"aping":11227,"ĠVeg":11228,"Ġcompan":11229,"ĠThan":11230,"iley":11231,"Ġscre":11232,"Ġaftermath":11233,"phone":11234,"veland":11235,"Ġconsent":11236,"icking":11237,"ĠSeattle":11238,"ĠCommer":11239,"Ġundergo":11240,"alsa":11241,"ĠNewman":11242,"Ġverses":11243,"Ġacoust":11244,"Ġacyclic":11245,"Ġquiet":11246,"rowed":11247,"Ġdirecting":11248,"Ġdownstream":11249,"ĠWhit":11250,"ĠIsle":11251,"Ġdistant":11252,"Ġdistances":11253,"Ġinsisted":11254,"ĠManuel":11255,"Ġbrilliant":11256,"ĠAllosaurus":11257,"inae":11258,"Ġvariations":11259,"ĠBegin":11260,"issioned":11261,"ĠParachute":11262,"ĠTelegraph":11263,"ĠBrother":11264,"luence":11265,"Ġhelps":11266,"Ġcurved":11267,"Ġspeaker":11268,"Ġtroop":11269,"ĠBarbar":11270,"Ġafford":11271,"Ġdestroying":11272,"ringe":11273,"Ġlimits":11274,"ĠImport":11275,"Ġcougars":11276,"Ġmounts":11277,"Ġblacks":11278,"ĠSecurity":11279,"Ġsummit":11280,"Ġprize":11281,"Ġballad":11282,"Ġrounded":11283,"Ġpredict":11284,"Ġpredicted":11285,"Ġconnections":11286,"Ġvolcan":11287,"ĠBoog":11288,"ĠChristianity":11289,"Ġtraveling":11290,"ĠUndertaker":11291,"Ġcomplicated":11292,"Ġcounterp":11293,"Ġconsistently":11294,"Ġcollections":11295,"Ġlogic":11296,"ĠJustin":11297,"Ġdisappeared":11298,"Ġcamer":11299,"Ġinteractions":11300,"ĠDerff":11301,"Ġ1819":11302,"Ġconcentration":11303,"uzzle":11304,"ĠPopular":11305,"Ġpalace":11306,"Ġroller":11307,"Ġfragments":11308,"Ġsending":11309,"ĠDarwin":11310,"ĠMovie":11311,"Ġagriculture":11312,"ĠCleveland":11313,"Ġparliamentary":11314,"Ġcalculated":11315,"ĠMarshal":11316,"Ġsurrendered":11317,"Ġnoble":11318,"Ġsympt":11319,"urrently":11320,"Ġpreceding":11321,"Ġtickets":11322,"ĠSupport":11323,"Ê»i":11324,"Ġcondemned":11325,"ĠGlobe":11326,"ĠHampshire":11327,"ĠSoutheast":11328,"Ġconjunction":11329,"ĠInternet":11330,"Ġcousin":11331,"ĠDwight":11332,"ĠStavanger":11333,"ĠViscount":11334,"ĠVegas":11335,"IP":11336,"eals":11337,"nh":11338,"pa":11339,"run":11340,"uating":11341,"Ä«":11342,"Ġtorn":11343,"Ġtaste":11344,"Ġcattle":11345,"arov":11346,"Ġpistol":11347,"Ġmal":11348,"Ġmild":11349,"Ġmentions":11350,"Ġdanc":11351,"Ġho":11352,"oub":11353,"Ġreun":11354,"Ġrejo":11355,"ĠAction":11356,"ĠArabs":11357,"Ġthrown":11358,"street":11359,"ĠCN":11360,"ĠCz":11361,"ĠCow":11362,"eland":11363,"acan":11364,"ĠMÄģ":11365,"ĠMorning":11366,"ĠMVP":11367,"Ġgran":11368,"idal":11369,"ĠHNC":11370,"ĠPear":11371,"ĠRing":11372,"ĠFit":11373,"ulates":11374,"ĠWorth":11375,"Ġatop":11376,"ĠLabyrinth":11377,"ĠGran":11378,"romet":11379,"istical":11380,"ĠEg":11381,"ĠOcc":11382,"Ġsupre":11383,"Ġexceed":11384,"ĠStat":11385,"season":11386,"ĠChand":11387,"Ġunst":11388,"oulder":11389,"Ġclar":11390,"Ġresid":11391,"Ġrout":11392,"Ġdisrupt":11393,"Ġdesper":11394,"action":11395,"Ġmaneu":11396,"ikk":11397,"Ġoffshore":11398,"wegian":11399,"Ġnep":11400,"ĠAsahi":11401,"ĠSega":11402,"ĠMarge":11403,"ĠArn":11404,"Ġflies":11405,"Ġcanon":11406,"ĠNewport":11407,"Ġreleasing":11408,"anka":11409,"Ġ102":11410,"ĠZr":11411,"itsu":11412,"ĠAftermath":11413,"Ġheading":11414,"Ġcouldn":11415,"Ġoperas":11416,"Ġmatters":11417,"Ġairborne":11418,"ĠIsles":11419,"Ġguides":11420,"ĠBeau":11421,"Ġgrade":11422,"ĠChristi":11423,"Ġconfusion":11424,"Ġprogressed":11425,"Ġmedal":11426,"ĠCompanies":11427,"ĠEdson":11428,"Ġplanes":11429,"Ġcommunist":11430,"Ġaviation":11431,"iscus":11432,"ĠRomania":11433,"Ġlimestone":11434,"Ġfriendship":11435,"Ġcasem":11436,"ĠMonth":11437,"Ġvaluable":11438,"Ġimprovement":11439,"ĠBoat":11440,"Ġinvestment":11441,"ĠSmall":11442,"ĠAngelou":11443,"ĠCorpus":11444,"ĠLaud":11445,"ĠOpera":11446,"Ġviolation":11447,"Ġpenetr":11448,"Ġdenomin":11449,"ĠTraining":11450,"Ġ1849":11451,"ĠServices":11452,"Ġpresidential":11453,"Ġcounteratt":11454,"Ġbowling":11455,"Ġhoping":11456,"ĠHumph":11457,"itchcraft":11458,"Ġcelebrate":11459,"Ġbeaten":11460,"Ġhabitats":11461,"ĠHawaiÊ»i":11462,"ĠHalo":11463,"Ġvoices":11464,"Ġthirteen":11465,"Ġsensitive":11466,"ĠLarry":11467,"ĠMDOT":11468,"Ġrequirements":11469,"ĠTrue":11470,"Ġtunnels":11471,"ĠNightingale":11472,"ĠGraham":11473,"Ġsegments":11474,"Ġsweet":11475,"ĠRifenburg":11476,"ĠColdrum":11477,"Ġexclusive":11478,"Ġenlar":11479,"Ġtransformed":11480,"Ġignored":11481,"Ġvertex":11482,"Ġamphibious":11483,"ĠWyoming":11484,"Ġicon":11485,"Ġwickets":11486,"Ġpartnership":11487,"Ġdiplomatic":11488,"Ġdependent":11489,"Ġrelegated":11490,"ĠCombat":11491,"Ġleukemia":11492,"Ġdeliberately":11493,"schild":11494,"ĠMargaret":11495,"ĠFernandez":11496,"Ġrestrictions":11497,"ĠSymph":11498,"Ġincomple":11499,"iblical":11500,"ĠXIII":11501,"ĠDerfflinger":11502,"ĠMÄģori":11503,"eh":11504,"fam":11505,"hog":11506,"rink":11507,"Ã¬":11508,"Ġtag":11509,"inished":11510,"atis":11511,"atem":11512,"atra":11513,"itches":11514,"itects":11515,"itudes":11516,"Ġcash":11517,"Ġcosm":11518,"Ġfiled":11519,"Ġpec":11520,"Ġpunt":11521,"icism":11522,"Ġdying":11523,"Ġhind":11524,"ĠTroph":11525,"ĠAff":11526,"ĠAub":11527,"ĠSite":11528,"ĠSora":11529,"Ġlaugh":11530,"omo":11531,"etheless":11532,"olence":11533,"Ġgills":11534,"Ġforb":11535,"irts":11536,"igs":11537,"ayne":11538,"ĠRI":11539,"ĠRul":11540,"ĠRand":11541,"ĠDot":11542,"ĠFiles":11543,"Ġalco":11544,"ĠLÃ¼":11545,"osy":11546,"osity":11547,"ĠJess":11548,"odium":11549,"Ġventure":11550,"iller":11551,"occ":11552,"aba":11553,"abl":11554,"ĠKal":11555,"ĠKem":11556,"ĠKody":11557,"ĠKyle":11558,"quatic":11559,"ĠUP":11560,"ĠUran":11561,"ĠStop":11562,"apur":11563,"Ġunre":11564,"ormal":11565,"Ġscorer":11566,"izers":11567,"ĠAlg":11568,"Ġapply":11569,"Ġmanage":11570,"ĠYam":11571,"phal":11572,"Ġenabled":11573,"anga":11574,"Ġsheep":11575,"Ġdecide":11576,"ĠComedy":11577,"Ġacclaim":11578,"Ġincur":11579,"anya":11580,"Ġlocally":11581,"Ġtrains":11582,"Ġteammate":11583,"Ġaddressed":11584,"aze":11585,"Ġ151":11586,"Ġ152":11587,"Ġsmoke":11588,"Ġshipments":11589,"Ġinfection":11590,"ĠBrun":11591,"ĠSpe":11592,"ĠCloud":11593,"ĠColomb":11594,"ĠCaroly":11595,"tym":11596,"ĠPlaza":11597,"Ġconfron":11598,"Ġtrio":11599,"Ġjustice":11600,"Ġvisits":11601,"Ġdrivers":11602,"eltown":11603,"ĠOrd":11604,"Ġantagon":11605,"Ġexperts":11606,"Ġconvict":11607,"ĠTrond":11608,"Ġ261":11609,"Ġradical":11610,"Ġcasting":11611,"Ġlawyer":11612,"Ġfunny":11613,"ĠMonkey":11614,"Ġcircular":11615,"Ġcircuit":11616,"Ġvocalist":11617,"Ġdevice":11618,"ĠMyc":11619,"Ġtravels":11620,"ĠZealanders":11621,"Ġterritorial":11622,"ĠOlivia":11623,"Ġtruly":11624,"ĠEgyptians":11625,"Ġminority":11626,"Ġchapters":11627,"ĠBurma":11628,"Ġfrequency":11629,"Ġcomplimented":11630,"ĠAntimony":11631,"Ġflows":11632,"ĠTrees":11633,"ĠBradstreet":11634,"ĠNorwegian":11635,"canal":11636,"Ġessentially":11637,"ĠMillennium":11638,"Ġmultipl":11639,"Ġheroes":11640,"Ġtorpedoes":11641,"ĠRoom":11642,"Ġuniversal":11643,"ĠMelbourne":11644,"blazer":11645,"ĠPalestinian":11646,"ĠLucas":11647,"ĠJurchens":11648,"ĠHoriz":11649,"Ġlaboratory":11650,"ĠAriz":11651,"ĠKennedy":11652,"Ġsponsored":11653,"Ġrubber":11654,"Ġcorps":11655,"ĠRemix":11656,"ĠPersonal":11657,"Ġgarden":11658,"Ġprice":11659,"Ġinterpretation":11660,"ĠBedell":11661,"Ġavoided":11662,"Ġdivorce":11663,"ĠCecil":11664,"Ġmanuscripts":11665,"Ġdispatched":11666,"ĠRothschild":11667,"Ġcontradict":11668,"Ġtwentieth":11669,"ĠMantell":11670,"Ġmathemat":11671,"ĠCyrus":11672,"Ġhiatus":11673,"ĠContemporary":11674,"ĠBeginning":11675,"ĠCarolyn":11676,"CW":11677,"Down":11678,"Works":11679,"bal":11680,"case":11681,"lane":11682,"pected":11683,"Æ°":11684,"Ġtel":11685,"Ġarose":11686,"erning":11687,"Ġsib":11688,"Ġsoph":11689,"Ġsaint":11690,"Ġwolf":11691,"Ġwonder":11692,"athetic":11693,"orough":11694,"Ġcrick":11695,"Ġfart":11696,"Ġfires":11697,"Ġing":11698,"Ġpaying":11699,"Ġpuppet":11700,"Ġdawn":11701,"ĠTun":11702,"Ġrever":11703,"ĠAges":11704,"ĠSina":11705,"ilis":11706,"ĠCrab":11707,"Ġliner":11708,"Ġlumin":11709,"Ġnut":11710,"ĠMond":11711,"Ġwaste":11712,"ece":11713,"ĠIA":11714,"ĠIOC":11715,"Ġgarn":11716,"igious":11717,"tering":11718,"ushes":11719,"uto":11720,"Ġherit":11721,"ĠRÃ¤":11722,"ĠData":11723,"ĠLt":11724,"ĠLat":11725,"ĠLyn":11726,"ĠGw":11727,"heric":11728,"eston":11729,"odox":11730,"ĠEtty":11731,"ĠOb":11732,"Ġvir":11733,"Ġrings":11734,"anther":11735,"ĠStars":11736,"ĠStela":11737,"asted":11738,"iph":11739,"aple":11740,"arya":11741,"Ġuncom":11742,"Ġunless":11743,"Ġintact":11744,"Ġadequ":11745,"Ġabuse":11746,"Ġscen":11747,"Ġscream":11748,"overed":11749,"enson":11750,"ikes":11751,"Ġpret":11752,"Ġeval":11753,"Ġallocated":11754,"issions":11755,"ribe":11756,"Ġcentimetres":11757,"Ġknee":11758,"Ġcanals":11759,"Ġretreated":11760,"Ġasserted":11761,"Ġsubord":11762,"Ġmovies":11763,"Ġquoted":11764,"ĠLegend":11765,"ĠLeban":11766,"ĠShim":11767,"Ġdozen":11768,"Ġfounding":11769,"veloped":11770,"Ġinvaded":11771,"ĠZe":11772,"ĠZagre":11773,"Ġexpand":11774,"Ġpopulated":11775,"Ġ116":11776,"Ġinfilt":11777,"ĠBright":11778,"Ġimposed":11779,"Ġlandmark":11780,"ĠClara":11781,"Ġprovincial":11782,"Ġsixty":11783,"Ġadvances":11784,"Ġconcession":11785,"Ġphylogen":11786,"ĠGuatem":11787,"Ġmarched":11788,"Ġprogression":11789,"Ġhalted":11790,"Ġdestination":11791,"ĠStein":11792,"ĠComposition":11793,"Ġstorylines":11794,"ĠPrincip":11795,"Ġpositioned":11796,"Ġcurve":11797,"Ġrealistic":11798,"ĠTristan":11799,"ĠPortland":11800,"Ġarrives":11801,"Ġcompetitive":11802,"Ġskill":11803,"ĠEliot":11804,"ĠAssy":11805,"ĠRegard":11806,"Ġaffair":11807,"Ġradius":11808,"Ġbarrier":11809,"Ġgenu":11810,"ĠExpl":11811,"Ġsword":11812,"Ġ1897":11813,"ÃŃn":11814,"Ġballs":11815,"ĠActress":11816,"ĠSerb":11817,"Ġimprovements":11818,"Ġzomb":11819,"Ġhosts":11820,"ĠMedical":11821,"Ġfunded":11822,"Ġseemingly":11823,"Ġlyrical":11824,"ĠPlayers":11825,"Ġinterviews":11826,"Ġbreaks":11827,"ĠFilming":11828,"Ġauton":11829,"Ġloop":11830,"Ġlinks":11831,"Ġlifted":11832,"ĠBuff":11833,"Ġsalary":11834,"ĠSarah":11835,"Ġmarketing":11836,"ĠSixth":11837,"Ġjumping":11838,"ĠUlster":11839,"Ġemotions":11840,"ĠAviation":11841,"Ġweakness":11842,"Ġsacrif":11843,"Ġuniverse":11844,"Ġsporting":11845,"Ġloading":11846,"Ġneutron":11847,"Ġwitnesses":11848,"ĠMongols":11849,"Ġteachers":11850,"Ġmoist":11851,"Ġstretched":11852,"ĠWallace":11853,"ĠBernard":11854,"Ġhighlighted":11855,"ĠBosn":11856,"Ġoverwhelming":11857,"ĠJoyful":11858,"Ġacknowledged":11859,"ĠMachine":11860,"ĠNicholas":11861,"Ġtributaries":11862,"ĠHomar":11863,"ongsan":11864,"Ġbodyline":11865,"Ġintellectual":11866,"Ġpropaganda":11867,"ĠMaurice":11868,"Ġmembrane":11869,"Ġalphab":11870,"Ġtombs":11871,"Ġhorizont":11872,"Ġgathered":11873,"ĠGuadalcanal":11874,"Ġvertebrae":11875,"ĠZanzibar":11876,"Ġenormous":11877,"ĠHebrew":11878,"Ġathlete":11879,"ĠArizona":11880,"ĠSinai":11881,"Ġheritage":11882,"aos":11883,"cially":11884,"fish":11885,"ioc":11886,"lides":11887,"rin":11888,"uros":11889,"zes":11890,"ĠÄ":11891,"Ġá":11892,"Ġurg":11893,"Ġaided":11894,"inter":11895,"inisc":11896,"onian":11897,"Ġward":11898,"Ġworn":11899,"atters":11900,"orf":11901,"Ġcens":11902,"isa":11903,"isive":11904,"anelli":11905,"Ġbag":11906,"Ġpill":11907,"Ġpink":11908,"Ġmate":11909,"ĠTang":11910,"ĠAqu":11911,"ĠSox":11912,"star":11913,"ĠCS":11914,"ĠCov":11915,"ĠCret":11916,"ĠCurt":11917,"Ġeating":11918,"Ġnic":11919,"ache":11920,"ĠBilly":11921,"olia":11922,"olics":11923,"Ġgay":11924,"Ġgentle":11925,"idated":11926,"ighed":11927,"oting":11928,"Ġaside":11929,"Ġstability":11930,"ĠPast":11931,"ĠRub":11932,"ĠRaf":11933,"thren":11934,"ĠDress":11935,"ĠFur":11936,"ĠFaul":11937,"Ġconsole":11938,"ĠNASA":11939,"ĠNFL":11940,"ĠWa":11941,"ĠWu":11942,"ĠWald":11943,"ĠWrapped":11944,"raits":11945,"agoda":11946,"ifest":11947,"Ġvig":11948,"oret":11949,"Ġrays":11950,"Ġrush":11951,"ĠInside":11952,"alling":11953,"ĠKo":11954,"ĠKer":11955,"ackDown":11956,"ĠStreets":11957,"gehog":11958,"Ġune":11959,"ĠVent":11960,"ĠView":11961,"ĠVerm":11962,"ruption":11963,"uees":11964,"ondo":11965,"Ġdisabled":11966,"overy":11967,"Ġattending":11968,"ĠYongsan":11969,"Ġoutstanding":11970,"Ġallies":11971,"Ġcentered":11972,"isional":11973,"Ġcolors":11974,"Ġdefenses":11975,"Ġintermediate":11976,"Ġamid":11977,"ĠLevel":11978,"ĠReagan":11979,"Ġsurge":11980,"Ġinvent":11981,"Ġdevelopers":11982,"Ġminers":11983,"Ġministers":11984,"ĠBrack":11985,"ĠClay":11986,"Ã©d":11987,"keeper":11988,"ĠBeeton":11989,"ĠEuropa":11990,"Ġparade":11991,"Ġexplore":11992,"ĠÂµ":11993,"ĠCharm":11994,"ĠWeather":11995,"Ġsimilarities":11996,"Ġpoliticians":11997,"Ġmembership":11998,"ĠPeriod":11999,"Ġterr":12000,"Ġradar":12001,"Ġbattlefield":12002,"Ġgenes":12003,"Ġdeclaration":12004,"ĠHaitian":12005,"Ġ1898":12006,"Ġassociate":12007,"Ġcuts":12008,"Ġdevoted":12009,"ihu":12010,"ĠSmackDown":12011,"Ġmerc":12012,"Ġcalm":12013,"Ġdispersed":12014,"Ġgraduate":12015,"hensive":12016,"Ġautobi":12017,"Ġeducational":12018,"Ġdealing":12019,"Ġsatir":12020,"Ġhappen":12021,"Ġuncle":12022,"Ġcannon":12023,"Ġinvestigate":12024,"Ġsculpted":12025,"Ġobservatory":12026,"ĠJimmy":12027,"Ġdynamic":12028,"ĠKnights":12029,"ĠBrenda":12030,"umbered":12031,"Ġsexuality":12032,"Ġexhibited":12033,"Ġkicked":12034,"Ġkickoff":12035,"thening":12036,"ĠFarm":12037,"Ġlegislature":12038,"Ġduet":12039,"Ġneighbour":12040,"Ġpermanently":12041,"Ġloaded":12042,"ĠIndustrial":12043,"Ġplatforms":12044,"Ġopinions":12045,"ĠDestroy":12046,"ĠCreutz":12047,"ĠMotor":12048,"ĠCambodian":12049,"ĠMarcus":12050,"Ġaerodrom":12051,"Ġsufficiently":12052,"ĠOfficer":12053,"ĠHellblazer":12054,"Ġloved":12055,"ĠAyola":12056,"ĠArchaeological":12057,"Ġfrigate":12058,"ĠHughes":12059,"Ġchallenging":12060,"Ġcongregation":12061,"ught":12062,"ĠComplex":12063,"Ġsurprised":12064,"Ġinaugural":12065,"Ġconsequence":12066,"Ġprompting":12067,"ĠPalmyrene":12068,"Ġreversed":12069,"Ġfertil":12070,"Ã¶nen":12071,"Ġfundamental":12072,"ĠNavar":12073,"ĠStaley":12074,"Ġexcellent":12075,"Ġunexpected":12076,"Ġpseud":12077,"Ġinducted":12078,"ĠPlateau":12079,"ĠSkinner":12080,"ĠEcclestone":12081,"ikkÃ¶nen":12082,"ĠTrondheim":12083,"ĠRÃ¤ikkÃ¶nen":12084,"ĠZagreb":12085,"ĠCretaceous":12086,"BI":12087,"eing":12088,"music":12089,"nall":12090,"Ãº":12091,"Ġty":12092,"oni":12093,"Ġsank":12094,"Ġoak":12095,"isons":12096,"Ġbeds":12097,"aloo":12098,"ingray":12099,"Ġmit":12100,"Ġdancing":12101,"Ġdrift":12102,"Ġhier":12103,"ourag":12104,"ĠTres":12105,"ĠTotal":12106,"ĠSuez":12107,"ĠCinem":12108,"Ġlakes":12109,"aduct":12110,"ĠMP":12111,"ĠMing":12112,"ĠBry":12113,"ĠHi":12114,"ĠHair":12115,"Ġstress":12116,"ĠPy":12117,"ĠProp":12118,"ĠPink":12119,"ĠPapa":12120,"ĠRud":12121,"ĠDh":12122,"ĠDays":12123,"ĠDoyle":12124,"ĠFat":12125,"ĠFro":12126,"ĠFight":12127,"ĠFull":12128,"Ġisn":12129,"Ġally":12130,"Ġconceived":12131,"ĠWell":12132,"ĠWrest":12133,"ĠLem":12134,"ĠLiz":12135,"ĠGene":12136,"ripp":12137,"riff":12138,"ĠOak":12139,"illes":12140,"ĠInv":12141,"Ġseed":12142,"abric":12143,"ĠKr":12144,"Ġpled":12145,"Ġplates":12146,"Ġshock":12147,"ĠkW":12148,"ĠStrong":12149,"ĠChad":12150,"Ġunt":12151,"ĠVist":12152,"ĠVick":12153,"Ġclergy":12154,"ĠHein":12155,"Ġusers":12156,"Ġscar":12157,"iki":12158,"Ġenact":12159,"Ġcentres":12160,"Ġreminisc":12161,"formed":12162,"Ġconservative":12163,"Ġdecomm":12164,"Ġcolours":12165,"Ġintervention":12166,"Ġquad":12167,"ĠLeices":12168,"Ġmonitors":12169,"ĠShan":12170,"Ġsurpass":12171,"Ġblues":12172,"Ġsingers":12173,"Ġrepet":12174,"Ġrepaired":12175,"Ġ171":12176,"Ġopens":12177,"Ġstudying":12178,"ĠMayor":12179,"Ġimped":12180,"Ġpassages":12181,"Ġdamaging":12182,"Ġphosph":12183,"Ġvaries":12184,"Ġportraits":12185,"Ġtrium":12186,"Ġpossessed":12187,"Ġexplaining":12188,"ambers":12189,"ĠSteiner":12190,"Ġdemon":12191,"ĠPrincess":12192,"Ġexperimental":12193,"Ġmagical":12194,"ĠAirborne":12195,"Ġsurvival":12196,"Ġlights":12197,"ĠRegiments":12198,"Ġdiscovers":12199,"ĠExit":12200,"Ġ1894":12201,"Ġagrees":12202,"Ġestimate":12203,"Ġidentical":12204,"Ġconnects":12205,"Ġcyclization":12206,"Ġrecognize":12207,"Ġ1854":12208,"Ġ1857":12209,"Ġcorrid":12210,"ĠRockef":12211,"Ġacceptable":12212,"stituted":12213,"Ġ1862":12214,"Ġconducting":12215,"Ġgrazing":12216,"ĠCrash":12217,"Ġ1878":12218,"ĠQuiney":12219,"Ġdraws":12220,"Ġparticipants":12221,"ĠGrant":12222,"Ġdropping":12223,"ĠDrive":12224,"ĠMontreal":12225,"ĠSingh":12226,"Ġriff":12227,"ĠFranklin":12228,"Ġdeeply":12229,"Ġensemble":12230,"nyi":12231,"Ġlearns":12232,"Ġdarkness":12233,"Ġconcepts":12234,"Ġdigit":12235,"ocratic":12236,"ĠSarawak":12237,"Ġhotels":12238,"rolling":12239,"Ġcrowds":12240,"Ġdrafted":12241,"Ġangry":12242,"ĠNazarov":12243,"Ġqualifying":12244,"ĠFerdin":12245,"ĠTodd":12246,"Ġalternate":12247,"Ġencounters":12248,"Ġnarrator":12249,"ĠTurkey":12250,"Ġratio":12251,"ĠDenmark":12252,"Ġspotted":12253,"Ġscholarship":12254,"Ġbelonging":12255,"ĠDreamWorks":12256,"ĠMorris":12257,"Ġunsuccessfully":12258,"Ġvolunteer":12259,"ĠWinds":12260,"Ġreservoirs":12261,"ĠRonald":12262,"Ġrifles":12263,"Ġbatsmen":12264,"ĠRaymond":12265,"Ġcorresponding":12266,"ĠAntonio":12267,"Ġhypothes":12268,"Ġfavourite":12269,"Ġfairly":12270,"Ġrevolutionary":12271,"Ġfantasy":12272,"ĠCruise":12273,"Ġgallery":12274,"Ġculm":12275,"Ġimplemented":12276,"Ġurged":12277,"ĠFlower":12278,"ĠDurham":12279,"Ġconsumption":12280,"Ġaccommodate":12281,"ĠLancaster":12282,"Ġchallenges":12283,"Ġabsolute":12284,"Ġsubstance":12285,"ĠHobbs":12286,"ĠHenderson":12287,"ĠCorbet":12288,"Ġdrainage":12289,"ĠVulcan":12290,"ĠJohann":12291,"Ġadministered":12292,"ipelago":12293,"Ġscreens":12294,"Ġacoustic":12295,"ĠCzech":12296,"Ã¬nh":12297,"ĠTrophy":12298,"Ġcrickets":12299,"ĠFerdinand":12300,"FU":12301,"IS":12302,"gor":12303,"hatt":12304,"iors":12305,"kner":12306,"oids":12307,"Ã¢":12308,"Ġà":12309,"oria":12310,"itime":12311,"Ġfest":12312,"Ġfier":12313,"isations":12314,"anj":12315,"anus":12316,"Ġbin":12317,"Ġbron":12318,"Ġbush":12319,"Ġinver":12320,"Ġtools":12321,"Ġmisc":12322,"Ġmuzzle":12323,"ĠTob":12324,"ĠTaxon":12325,"Ġrework":12326,"ĠAw":12327,"sts":12328,"stones":12329,"ĠCG":12330,"ĠClear":12331,"adic":12332,"ĠMess":12333,"lyph":12334,"ĠBM":12335,"ĠBelt":12336,"ĠBoulder":12337,"olph":12338,"tery":12339,"ĠHak":12340,"ĠHockey":12341,"ĠHurricanes":12342,"Ġstaged":12343,"ĠPf":12344,"ĠRoll":12345,"ĠDian":12346,"unning":12347,"ĠFund":12348,"ĠNa":12349,"ĠWant":12350,"ĠLiao":12351,"ctic":12352,"Ġanger":12353,"umi":12354,"avan":12355,"rix":12356,"Ġdealt":12357,"Ġspore":12358,"ĠChu":12359,"ĠChile":12360,"cler":12361,"ĠVo":12362,"Ġinteg":12363,"outed":12364,"outing":12365,"Ġ202":12366,"Ġclust":12367,"izer":12368,"Ġdisgu":12369,"rice":12370,"ĠYet":12371,"ĠYang":12372,"phan":12373,"Ġprest":12374,"ribi":12375,"ailing":12376,"Ġfeared":12377,"ugg":12378,"Ġrelied":12379,"Ġsubd":12380,"Ġincidents":12381,"ĠRef":12382,"ĠReign":12383,"ĠReines":12384,"inski":12385,"Ġ109":12386,"Ġ1200":12387,"ĠSche":12388,"Ġnoise":12389,"Ġinvitation":12390,"ĠIndeed":12391,"Ġdescent":12392,"Ġdevelopments":12393,"Ġpolar":12394,"Ġextant":12395,"iente":12396,"Ġinsects":12397,"ĠBloom":12398,"Ġprovinces":12399,"ĠCarroll":12400,"ĠCarpenter":12401,"ĠAdri":12402,"ĠAdult":12403,"Ġvariable":12404,"Ġpromise":12405,"Ġlasting":12406,"Ġconfused":12407,"Ġcommanding":12408,"racted":12409,"ĠTherefore":12410,"Ġtempo":12411,"Ġhandle":12412,"Ġhandling":12413,"ĠComputer":12414,"Ġmarkets":12415,"Ġcrater":12416,"Ġtraditions":12417,"Ġplanets":12418,"Ġelite":12419,"Ġelectro":12420,"ĠAircraft":12421,"Ġordinary":12422,"Ġstatue":12423,"Ġequally":12424,"Ġpressed":12425,"Ġtourists":12426,"ĠNeolithic":12427,"ĠGlan":12428,"idding":12429,"ĠCareer":12430,"Ġ1899":12431,"ĠAtlÃ©t":12432,"bridge":12433,"Ġcommentators":12434,"Ġgrows":12435,"Ġ1885":12436,"Ġzinc":12437,"Ġceiling":12438,"ĠPartington":12439,"Ġcivilization":12440,"Ġgrain":12441,"boro":12442,"Ġtribe":12443,"ĠGreatest":12444,"ships":12445,"Ġdrown":12446,"inental":12447,"Ġscripts":12448,"ĠAnti":12449,"Ġintersections":12450,"Ġlifestyle":12451,"ĠAttack":12452,"Ġsuspected":12453,"ĠFormation":12454,"Ġevacuate":12455,"Ġevacuees":12456,"Ġtasks":12457,"Ġprinciples":12458,"Ġinternationally":12459,"Ã¼r":12460,"Ġexhibit":12461,"Ġofferings":12462,"Ġemphasized":12463,"Ġfragment":12464,"Ġattendance":12465,"Ġtargeted":12466,"Ġcomprising":12467,"ĠKeys":12468,"ĠCarlos":12469,"Ġreflecting":12470,"Ġperfectly":12471,"ĠHungary":12472,"Ġdistinguish":12473,"Ġinstructions":12474,"Ġlawsuit":12475,"Ġsleep":12476,"Ġconspirators":12477,"ĠArchaeology":12478,"Ġadvisories":12479,"Ġgathering":12480,"Ġdiverse":12481,"ĠCulture":12482,"ĠCultural":12483,"Ġprohibited":12484,"ĠÅĮ":12485,"Ġdevotion":12486,"ĠKyra":12487,"Ġrectangular":12488,"Ġcooperation":12489,"Ġnineteenth":12490,"htwald":12491,"Ġpione":12492,"aziridines":12493,"Ġdisbanded":12494,"Ġasteroid":12495,"Ġï»":12496,"Ġspawned":12497,"bracelet":12498,"ĠHumphrey":12499,"ĠRuler":12500,"ĠUrania":12501,"Ġgarnered":12502,"ĠFaulkner":12503,"ĠAtlÃ©tico":12504,"IV":12505,"PU":12506,"found":12507,"gud":12508,"ho":12509,"ked":12510,"mo":12511,"mers":12512,"rus":12513,"rines":12514,"ĨĴ":12515,"herent":12516,"Ġther":12517,"onso":12518,"Ġsic":12519,"itious":12520,"Ġcards":12521,"Ġfed":12522,"arius":12523,"Ġbol":12524,"ali":12525,"Ġment":12526,"Ġdug":12527,"Ġhung":12528,"ĠTell":12529,"ĠTank":12530,"ĠTuck":12531,"Ġreorgan":12532,"Ġreverse":12533,"ĠAN":12534,"ĠAS":12535,"ĠSaf":12536,"omon":12537,"omous":12538,"Ġnaked":12539,"ĠMI":12540,"ĠMak":12541,"ĠMole":12542,"ĠBased":12543,"ĠIR":12544,"idia":12545,"terfly":12546,"ĠHav":12547,"ĠHod":12548,"ĠPand":12549,"ĠPirates":12550,"ĠRut":12551,"ĠRound":12552,"ĠDup":12553,"ĠLaur":12554,"ĠGiel":12555,"avian":12556,"ĠEve":12557,"ifeng":12558,"Ġdeer":12559,"Ġchanc":12560,"ques":12561,"ĠâĨĴ":12562,"ĠStart":12563,"oved":12564,"Ġspear":12565,"Ġspoken":12566,"Ġleagues":12567,"idea":12568,"hedruli":12569,"Ġcliff":12570,"Ġresur":12571,"Ġrecruit":12572,"ĠThai":12573,"Ġscope":12574,"Ġages":12575,"Ġdislik":12576,"Ġjur":12577,"Ġplayable":12578,"overning":12579,"ibre":12580,"ensed":12581,"iko":12582,"Ġoutcome":12583,"inda":12584,"ampa":12585,"Ġweighed":12586,"ĠAny":12587,"Ġremote":12588,"icken":12589,"ugs":12590,"Ġsuburb":12591,"ĠScots":12592,"ĠAustin":12593,"ernoot":12594,"Ġmining":12595,"Ġmilitia":12596,"Ġextends":12597,"Ġcarrier":12598,"ĠConsequently":12599,"Ġairports":12600,"Ġimpressive":12601,"enne":12602,"Ġthoughts":12603,"Ġgoverned":12604,"Ġbrings":12605,"ĠForb":12606,"Ġrefuses":12607,"Ġconfidence":12608,"Ġorganic":12609,"Ġparad":12610,"Ġrequiring":12611,"levard":12612,"Ġconvicted":12613,"ĠXbox":12614,"Ġtwins":12615,"Ġinvolve":12616,"Ġmagic":12617,"beat":12618,"Ġterrestrial":12619,"ĠAfricaine":12620,"Ġsituations":12621,"Ġglac":12622,"Ġfrontier":12623,"Ġhumanity":12624,"Ġhumanitarian":12625,"Äģh":12626,"ĠHarbor":12627,"Ġswitch":12628,"Ġlikewise":12629,"Ġpriests":12630,"Ġconnect":12631,"ettes":12632,"Ġ1881":12633,"Ġ1859":12634,"Ġcommercially":12635,"Ġsexually":12636,"ĠMedal":12637,"Ġfloods":12638,"ĠCommando":12639,"Ġmaintains":12640,"ĠSuperman":12641,"ĠÃĨ":12642,"Ġparticipation":12643,"Ġoccupy":12644,"Ġcaliber":12645,"Ġ1832":12646,"Ġapartment":12647,"Ġphysics":12648,"Ġ1848":12649,"backs":12650,"ĠCatholics":12651,"Ġthickness":12652,"Ġlabour":12653,"Ġdedication":12654,"awny":12655,"Ġsuspic":12656,"ĠFormer":12657,"Ġdrummer":12658,"Ġversus":12659,"Ġsymbols":12660,"ĠJulio":12661,"ĠFerr":12662,"Ġchemistry":12663,"ĠKaifeng":12664,"ĠGibson":12665,"Ġmechanism":12666,"ĠIntram":12667,"ĠHyd":12668,"Ġimagination":12669,"Ġhonorary":12670,"ĠRetrieved":12671,"ĠGreece":12672,"Ġboyfriend":12673,"Ġexpeditions":12674,"Ġcollaborated":12675,"Ġrivalry":12676,"Ġdescendants":12677,"ĠApart":12678,"ĠVillaret":12679,"ĠMoving":12680,"Ġremnant":12681,"ĠRevolutionary":12682,"ĠAlfa":12683,"Ġprosecution":12684,"Ġreserves":12685,"ĠBrazilian":12686,"Ġamphibians":12687,"Ġblend":12688,"Ġwicket":12689,"Ġdeposits":12690,"Ġskelet":12691,"Ġexhaust":12692,"Ġanswer":12693,"Ġorchestra":12694,"ĠIndonesian":12695,"ĠConfederate":12696,"ĠTrout":12697,"Ġconscious":12698,"ĠATP":12699,"ĠMkhedruli":12700,"Ġenthusi":12701,"ĠObserver":12702,"Ġbranches":12703,"ĠVandernoot":12704,"Ġmemorable":12705,"ĠBanksia":12706,"ĠCantrell":12707,"Ġlinear":12708,"Ġredesign":12709,"Ġvulnerable":12710,"Ġcomprehensive":12711,"Ġmysterious":12712,"Ġdancers":12713,"ĠCharmbracelet":12714,"ĠNavarro":12715,"Ġreminiscent":12716,"ĠRockefeller":12717,"ĠGlanville":12718,"Ġï»¿":12719,"ĠGielgud":12720,"HS":12721,"OM":12722,"OS":12723,"TA":12724,"UC":12725,"bu":12726,"bard":12727,"bach":12728,"cor":12729,"iency":12730,"mith":12731,"master":12732,"pack":12733,"sis":12734,"Äį":12735,"Æ¡":12736,"Ġtent":12737,"Ġtension":12738,"hears":12739,"Ġtherapy":12740,"erb":12741,"erp":12742,"Ġsacked":12743,"Ġwire":12744,"Ġwished":12745,"Ġoct":12746,"atri":12747,"itus":12748,"itars":12749,"Ġbold":12750,"Ġbath":12751,"Ġine":12752,"Ġinex":12753,"ingham":12754,"icial":12755,"Ġmg":12756,"Ġmad":12757,"leased":12758,"ĠTide":12759,"Ġreh":12760,"ĠSport":12761,"ĠSug":12762,"ĠSMS":12763,"Ġthro":12764,"stage":12765,"ĠCatherine":12766,"Ġlig":12767,"Ġlock":12768,"amics":12769,"Ġeagle":12770,"Ġnaut":12771,"ĠMut":12772,"ĠMaid":12773,"ĠMaj":12774,"ĠBod":12775,"olar":12776,"Ġgren":12777,"Ġgender":12778,"Ġstick":12779,"Ġstair":12780,"Ġsteal":12781,"Ġstaying":12782,"Ġstanz":12783,"ĠRey":12784,"ĠRook":12785,"ĠDE":12786,"ĠFal":12787,"ĠFlying":12788,"Ġconform":12789,"Ġconven":12790,"ĠNK":12791,"ĠNam":12792,"ĠLoy":12793,"ĠLung":12794,"ĠGenesis":12795,"Ġitem":12796,"ĠJas":12797,"ĠEz":12798,"ĠEarn":12799,"onge":12800,"ĠKan":12801,"ghan":12802,"Ġexchang":12803,"pts":12804,"ĠUk":12805,"ĠUy":12806,"ĠâĢ¦":12807,"ogs":12808,"ĠVa":12809,"Ġcomputers":12810,"Ġresolved":12811,"Ġperc":12812,"Ġperception":12813,"lando":12814,"Ġdesired":12815,"Ġoutd":12816,"angle":12817,"awi":12818,"Ġsecular":12819,"ailand":12820,"ĠSean":12821,"Ġrelating":12822,"ĠEnergy":12823,"Ġbuoys":12824,"rosaur":12825,"Ġmusc":12826,"Ġ103":12827,"anyan":12828,"Ġpresbyter":12829,"Ġmetric":12830,"Ġ156":12831,"Ġopined":12832,"ĠWarner":12833,"uedoc":12834,"Ġmaturity":12835,"ĠClocks":12836,"ĠBlock":12837,"Ġadventures":12838,"Ġguid":12839,"ĠDevin":12840,"ĠBeing":12841,"Ġdetect":12842,"Ġprototype":12843,"aiman":12844,"Ġconfident":12845,"Ġslave":12846,"Ġsentiment":12847,"ĠOrlando":12848,"ĠPrim":12849,"ĠAmos":12850,"Ġcrimes":12851,"Ġelig":12852,"ealous":12853,"ĠElgin":12854,"Ġaffect":12855,"Ġnationalist":12856,"Ġentirety":12857,"ĠSyria":12858,"Ġidentification":12859,"ĠMerc":12860,"Ġlacks":12861,"Ġencourag":12862,"Ġ1882":12863,"Ġrebel":12864,"Ġfortifications":12865,"Ġ1856":12866,"Ġhonors":12867,"ĠBerhtwald":12868,"ĠThompson":12869,"ĠCommandos":12870,"ĠMetropolitan":12871,"ĠArtillery":12872,"Ġscreened":12873,"Ġconcludes":12874,"Ġloose":12875,"ĠHeadlam":12876,"Ġconsiderably":12877,"ĠArchitect":12878,"Ġinvestigated":12879,"Ġphotography":12880,"ĠJamie":12881,"ĠJosephine":12882,"ĠConfessions":12883,"ĠFourth":12884,"ĠIndependiente":12885,"ĠBolton":12886,"Ġholes":12887,"Ġprisoner":12888,"Ġportrayal":12889,"ĠPopM":12890,"Ġduo":12891,"Ġextraord":12892,"ĠReviews":12893,"ĠBhair":12894,"Ġpanels":12895,"ĠRajam":12896,"Ġrows":12897,"Ġgrasses":12898,"Ġsailing":12899,"ĠFreedom":12900,"Ġfears":12901,"ĠExped":12902,"ĠConstantin":12903,"boards":12904,"Ġswept":12905,"Ġtravelling":12906,"Ġmicroscop":12907,"ĠLiberal":12908,"Ġaccidentally":12909,"ĠBarbara":12910,"Ġcontributions":12911,"Ġdisturbed":12912,"Ġoptions":12913,"Ġmythology":12914,"Ġreconstruct":12915,"ĠGabri":12916,"Ġvertices":12917,"Ġdrugs":12918,"Ġcabinet":12919,"Ġimmigrants":12920,"Ġexercise":12921,"Ġfloating":12922,"Ġpuzzle":12923,"ĠGanges":12924,"ĠQedarites":12925,"Ġindigo":12926,"ĠIndonesia":12927,"Ġsamples":12928,"Ġcarriers":12929,"Ġteachings":12930,"Ġturbines":12931,"ĠLanguedoc":12932,"Ġnickname":12933,"ĠUniversal":12934,"Ġrendered":12935,"Ġjackrabbit":12936,"ĠGladstone":12937,"court":12938,"oplasm":12939,"Ġinflicted":12940,"ĠCPS":12941,"Ġbarely":12942,"Ġinhabited":12943,"ĠFreakum":12944,"ĠWNO":12945,"ĠMcEl":12946,"Ġhampered":12947,"ximity":12948,"ĠLoverboy":12949,"Ġsymptoms":12950,"Ġnephew":12951,"Ġincomplete":12952,"ĠAuburn":12953,"Ġsiblings":12954,"ĠLeicester":12955,"ĠIntramuros":12956,"Ġnautical":12957,"iants":12958,"mund":12959,"metr":12960,"saku":12961,"ufficient":12962,"Ġè":12963,"Ġé":12964,"Ġtune":12965,"inued":12966,"eria":12967,"rez":12968,"Ġsink":12969,"aland":12970,"aliation":12971,"Ġpian":12972,"Ġpier":12973,"Ġhide":12974,"Ġharsh":12975,"leans":12976,"ĠTy":12977,"ĠSak":12978,"ĠSang":12979,"ĠSamp":12980,"ĠCann":12981,"Ġlam":12982,"Ġlun":12983,"Ġecho":12984,"ĠMh":12985,"ĠMom":12986,"ĠMol":12987,"ĠMail":12988,"ĠBelf":12989,"oles":12990,"Ġgram":12991,"Ġgoverning":12992,"Ġforget":12993,"igon":12994,"ĠHosp":12995,"Ġasc":12996,"usa":12997,"Ġstall":12998,"ĠPel":12999,"ĠPap":13000,"ema":13001,"ĠNorse":13002,"ĠWes":13003,"rained":13004,"ĠLuz":13005,"osion":13006,"ĠGack":13007,"ĠEP":13008,"Ġproclaimed":13009,"Ġproximity":13010,"Ġrh":13011,"Ġramp":13012,"abs":13013,"ĠKub":13014,"Ġchord":13015,"Ġexile":13016,"quis":13017,"quir":13018,"Ġshall":13019,"Ġshipped":13020,"ĠChop":13021,"Ġuncon":13022,"Ġintent":13023,"solete":13024,"pert":13025,"Ġclad":13026,"Ġrecapt":13027,"ĠThing":13028,"ĠThailand":13029,"Ġscores":13030,"Ġovercome":13031,"Ġalliance":13032,"Ġnearest":13033,"Ġdeciding":13034,"othic":13035,"Ġflour":13036,"Ġflown":13037,"Ġrelocated":13038,"ĠAmericas":13039,"Ġrabb":13040,"Ġregiments":13041,"hesh":13042,"Ġspeculated":13043,"Ġincred":13044,"heng":13045,"ĠShar":13046,"Ġmetaph":13047,"Ġ172":13048,"Ġ173":13049,"Ġstudios":13050,"aux":13051,"Ġobsolete":13052,"ashire":13053,"Ã©l":13054,"Ġguitars":13055,"Ġdamages":13056,"ĠBeij":13057,"ĠGuinness":13058,"opsis":13059,"ĠFlotilla":13060,"ĠEdition":13061,"ĠWeev":13062,"Ġdebt":13063,"Ġtotally":13064,"Ġdelight":13065,"Ġsuggestion":13066,"Ġrealised":13067,"ĠTrad":13068,"ĠTrinity":13069,"ĠXook":13070,"Ġelectrical":13071,"Ġcompetitor":13072,"Ġterrorist":13073,"Ġstatues":13074,"escope":13075,"ĠBaron":13076,"Ġwanting":13077,"Ġnightingale":13078,"Ġkeen":13079,"ĠOthers":13080,"Ġtraditionally":13081,"Ġacceptance":13082,"Ġ1865":13083,"Ġstrengthening":13084,"ĠMarket":13085,"ĠQuinn":13086,"Ġremoving":13087,"Ġthinks":13088,"Ġsubjected":13089,"Ġ750":13090,"ragon":13091,"ĠNote":13092,"Ġcheek":13093,"Ġensuing":13094,"ĠTerry":13095,"Ġattractive":13096,"ĠArchbishop":13097,"ĠBradman":13098,"Ġlayers":13099,"Ġpreventing":13100,"Ġlogs":13101,"ĠOutside":13102,"Ġdefender":13103,"ĠLoose":13104,"Ġreinforce":13105,"ĠJulian":13106,"Ġsupplied":13107,"Ġelevated":13108,"Ġeleventh":13109,"ĠDerby":13110,"galith":13111,"ĠCapital":13112,"Ġemotion":13113,"ĠHalf":13114,"Ġstopping":13115,"ĠLegisl":13116,"ĠKarl":13117,"Ġeliminate":13118,"ĠSubsequently":13119,"Ġbelonged":13120,"Ġreflects":13121,"Ġmistaken":13122,"ĠMicro":13123,"Ġrestaurants":13124,"ĠBrigades":13125,"Ġrituals":13126,"Ġdecreased":13127,"Ġdecrease":13128,"avery":13129,"Ġaccomplished":13130,"ĠWinter":13131,"Ġcategories":13132,"ĠMariah":13133,"ÅĤaw":13134,"Ġconquered":13135,"ĠPotter":13136,"Ġrecreational":13137,"ĠLancashire":13138,"Ġrelegation":13139,"Ġabsolut":13140,"ĠTechnology":13141,"Ġobstacles":13142,"Ġimprisonment":13143,"ĠVienna":13144,"ĠExpressway":13145,"Ġplayoffs":13146,"Ġborders":13147,"ĠYugoslavia":13148,"aturally":13149,"Ġbattlecruisers":13150,"ĠPrivate":13151,"ĠEugene":13152,"ĠPakistan":13153,"Ġisotopes":13154,"ĠGazan":13155,"ĠKÅįsaku":13156,"Ġcanceled":13157,"ĠPuerto":13158,"ĠBattery":13159,"Ġprecipitation":13160,"ĠBarbarian":13161,"rometric":13162,"Ġalcohol":13163,"ĠShimomura":13164,"Ġhorizontal":13165,"Ġdecommissioned":13166,"ĠTaxonomy":13167,"ĠGacko":13168,"BO":13169,"Bob":13170,"ait":13171,"bi":13172,"dy":13173,"front":13174,"gom":13175,"hand":13176,"iu":13177,"rino":13178,"vy":13179,"Ġes":13180,"Ġion":13181,"Ġtennis":13182,"Ġairst":13183,"Ġaft":13184,"inas":13185,"onn":13186,"rels":13187,"Ġsails":13188,"orian":13189,"itate":13190,"Ġcable":13191,"Ġcorpor":13192,"Ġbinding":13193,"Ġpig":13194,"rogen":13195,"Ġmos":13196,"Ġmere":13197,"Ġdread":13198,"Ġhockey":13199,"ĠTz":13200,"ĠTalk":13201,"Ġrept":13202,"ĠAL":13203,"ĠSey":13204,"Ġthorough":13205,"adh":13206,"ĠMeth":13207,"ĠTheater":13208,"ĠBoot":13209,"ĠBask":13210,"ĠBÃ¬nh":13211,"ĠIgn":13212,"eto":13213,"ĠHous":13214,"ĠHold":13215,"uskh":13216,"Ġstalk":13217,"Ġstrange":13218,"ĠPok":13219,"ĠRush":13220,"ĠRFU":13221,"emark":13222,"ĠDry":13223,"ĠDraft":13224,"ĠFus":13225,"ĠFather":13226,"ĠNik":13227,"ĠWells":13228,"ĠWitchcraft":13229,"ĠLear":13230,"estock":13231,"ums":13232,"ĠEmer":13233,"ĠEaster":13234,"ĠOri":13235,"opy":13236,"Ġvin":13237,"Ġvass":13238,"Ġsear":13239,"Ġseal":13240,"Ġorange":13241,"ĠKatherine":13242,"Ġexterior":13243,"quet":13244,"quest":13245,"ĠStyle":13246,"geant":13247,"inee":13248,"ellor":13249,"ogram":13250,"Ġunh":13251,"Ġunpre":13252,"Ġresort":13253,"Ġabn":13254,"Ġrecount":13255,"Ġscales":13256,"itional":13257,"ĠAlph":13258,"Ġoverth":13259,"iban":13260,"ĠAnim":13261,"ĠSeb":13262,"Ġreluct":13263,"Ġmeat":13264,"ĠEno":13265,"Ġinterrupted":13266,"rosaurus":13267,"Ġcoat":13268,"Ġindirect":13269,"Ġmonster":13270,"ĠShaw":13271,"Ġentert":13272,"Ġdoors":13273,"tona":13274,"Ġtranscription":13275,"Ġdeputy":13276,"Ġ157":13277,"elfth":13278,"ĠGerald":13279,"Ġmilk":13280,"Ġwarnings":13281,"Ġinfl":13282,"Ġrespected":13283,"ĠSponge":13284,"Ġinsult":13285,"Ġinsufficient":13286,"ĠAugustus":13287,"ennial":13288,"Ġ134":13289,"Ġguy":13290,"Ġconcerning":13291,"Ġannoy":13292,"Ġprotesters":13293,"Ġbread":13294,"Ġdrink":13295,"Ġexplan":13296,"Ġboost":13297,"Ġcameo":13298,"Ġdemanding":13299,"Ġdemographic":13300,"ĠOrleans":13301,"Ġdebated":13302,"Ġdebris":13303,"ĠTruth":13304,"ĠPerth":13305,"Ġeveryday":13306,"Ġeld":13307,"Ġcompeting":13308,"Ġerror":13309,"ĠMicha":13310,"ĠAssist":13311,"Ġlessons":13312,"Ġnevertheless":13313,"Ġaffecting":13314,"adesh":13315,"Ġprimitive":13316,"ĠBlacks":13317,"Ġdeclaring":13318,"umping":13319,"Ġswit":13320,"Ġ1891":13321,"Ġ1893":13322,"ĠSword":13323,"Ġspecialized":13324,"Ġknows":13325,"Ġhonours":13326,"Ġresponses":13327,"ĠBerg":13328,"ĠBergen":13329,"Ġcontracts":13330,"ĠCrist":13331,"Ġachievement":13332,"Ġrape":13333,"ĠÃį":13334,"ouli":13335,"ĠAppro":13336,"Ġharass":13337,"ĠMahesh":13338,"Ġgraduated":13339,"ĠArtist":13340,"ĠFeel":13341,"ĠMontfort":13342,"ĠMontgom":13343,"Ġexamined":13344,"ratch":13345,"Ġultimate":13346,"ĠFIT":13347,"Ġfocuses":13348,"Ġparks":13349,"owski":13350,"Ġgraphic":13351,"Ġpaths":13352,"Ġconfirm":13353,"ĠFinn":13354,"ĠLoch":13355,"Ġpleased":13356,"Ġprinciple":13357,"Ġdisappear":13358,"umberland":13359,"Ġexcavated":13360,"ĠPitts":13361,"Ġcontacted":13362,"Ġmessages":13363,"ĠCraig":13364,"ĠMortier":13365,"ĠTimor":13366,"Ġmobil":13367,"ĠAdditional":13368,"Ġ737":13369,"ĠImagist":13370,"ĠDemocrats":13371,"Ġtheaters":13372,"Ġexplosion":13373,"ĠBroadcast":13374,"Ġcontested":13375,"Ġawareness":13376,"Ġclouds":13377,"ĠElectronic":13378,"ĠChronicle":13379,"Ġnavigation":13380,"ĠUrban":13381,"ĠDiego":13382,"Ġrevolt":13383,"Ġremembered":13384,"Ġborrowed":13385,"ĠHedgehog":13386,"Ġlatest":13387,"Ġfossils":13388,"Ġguerrillas":13389,"Ġrendition":13390,"Ġswimming":13391,"Ġsupernatural":13392,"Ġliquid":13393,"houser":13394,"Ġcoffee":13395,"Ġadvertisements":13396,"ĠFifth":13397,"ĠPoetry":13398,"Ġhygrometric":13399,"Ġbarracks":13400,"Ġreperto":13401,"ĠWikiped":13402,"Ġaccusations":13403,"ĠCrystal":13404,"Ġdescriptions":13405,"ĠThanhouser":13406,"Ġsupreme":13407,"Ġunstable":13408,"Æ°Æ¡":13409,"ĠPfaster":13410,"ĠStarting":13411,"ĠEarnest":13412,"ĠUygh":13413,"Ġguidance":13414,"metrical":13415,"ĠBelfast":13416,"ĠBeijing":13417,"uskhuri":13418,"ĠSpongeBob":13419,"ĠMontgomery":13420,"Æ°Æ¡ng":13421,"CS":13422,"bone":13423,"cont":13424,"fric":13425,"iop":13426,"jin":13427,"lies":13428,"nan":13429,"pow":13430,"rut":13431,"tes":13432,"uits":13433,"wy":13434,"yan":13435,"yers":13436,"ĠØ":13437,"ĠãĤ":13438,"ģĦ":13439,"Ġtap":13440,"Ġtawny":13441,"Ġaux":13442,"inich":13443,"onation":13444,"Ġcu":13445,"Ġcod":13446,"Ġcyl":13447,"Ġcats":13448,"Ġfals":13449,"anim":13450,"Ġben":13451,"inge":13452,"Ġpose":13453,"asant":13454,"roads":13455,"Ġmast":13456,"Ġdign":13457,"Ġhaz":13458,"leted":13459,"ĠSic":13460,"iland":13461,"strong":13462,"ĠCA":13463,"ĠCore":13464,"ĠCase":13465,"ĠClement":13466,"Ġlaud":13467,"Ġease":13468,"Ġnas":13469,"Ġnerv":13470,"acc":13471,"acular":13472,"acements":13473,"ĠMult":13474,"otihu":13475,"ĠHand":13476,"ĠHang":13477,"ĠHern":13478,"Ġstuff":13479,"ayed":13480,"ĠPont":13481,"ĠDoc":13482,"ĠFear":13483,"ĠFlet":13484,"ĠFisher":13485,"ĠFlanders":13486,"Ġwhatever":13487,"ĠNME":13488,"ĠNuskhuri":13489,"oso":13490,"ĠGand":13491,"ĠGross":13492,"ĠJar":13493,"ĠJag":13494,"Ġanalys":13495,"isting":13496,"riors":13497,"ĠESP":13498,"rescent":13499,"iferous":13500,"Ġproc":13501,"Ġvent":13502,"illance":13503,"ĠdeGrom":13504,"Ġsuited":13505,"Ġoral":13506,"ĠKum":13507,"Ġchase":13508,"ĠâģĦ":13509,"ĠStakes":13510,"Ġspell":13511,"Ġspark":13512,"Ġleaf":13513,"ellers":13514,"ĠVe":13515,"ĠVishn":13516,"Ġcomparing":13517,"Ġcompiled":13518,"Ġbutt":13519,"Ġconting":13520,"Ġreserved":13521,"Ġperf":13522,"ika":13523,"ikh":13524,"Ġenvelop":13525,"intage":13526,"Ġworker":13527,"Ġsecuring":13528,"Ġdecoration":13529,"Ġrelax":13530,"ologically":13531,"Ġthanks":13532,"veillance":13533,"Ġretaining":13534,"Ġassum":13535,"Ġquar":13536,"Ġcoined":13537,"Ġincons":13538,"Ġhighlights":13539,"Ġadds":13540,"Ġexpanding":13541,"Ġreporter":13542,"Ġextr":13543,"Ġinstances":13544,"Ġdistort":13545,"Ġpassenger":13546,"ĠCommodore":13547,"ĠManhatt":13548,"Ġadvent":13549,"Ġadvocated":13550,"Ġbatting":13551,"ĠAllmusic":13552,"Ġcharacterised":13553,"ĠProdu":13554,"ĠGuam":13555,"appen":13556,"Ġslaves":13557,"ĠParanth":13558,"Ġtracking":13559,"Ġexplored":13560,"ĠEuropeans":13561,"Ġmedian":13562,"elta":13563,"ĠFlag":13564,"Ġdemo":13565,"ĠTeotihu":13566,"ĠAmyl":13567,"arnation":13568,"Ġarchipelago":13569,"ĠTrade":13570,"Ġmyel":13571,"Ġ260":13572,"Ġerosion":13573,"Ġprojected":13574,"Ġterror":13575,"Ġeighteen":13576,"Ġsitcom":13577,"Ġfacts":13578,"Ġdivines":13579,"Ġgenres":13580,"Ġpainter":13581,"ĠHighland":13582,"ĠBlackie":13583,"Ġfrontal":13584,"Ġsummon":13585,"Ġvillain":13586,"Ġcoastline":13587,"Ġ1892":13588,"Ġ1896":13589,"Ġsuffer":13590,"ĠMoro":13591,"Ġimprov":13592,"Ġ1851":13593,"Ġ1853":13594,"ĠEmma":13595,"Ġexciting":13596,"ĠBerk":13597,"ĠCrim":13598,"ĠRhode":13599,"Ġ1874":13600,"Ġillum":13601,"Ġachievements":13602,"Ġdrawings":13603,"ĠWilf":13604,"ĠOsbert":13605,"Ġdonations":13606,"Ġinterviewed":13607,"Ġbreakdown":13608,"Ġblockade":13609,"Ġharvest":13610,"ĠHelen":13611,"ĠVargas":13612,"Ġcomplained":13613,"ĠTerrorist":13614,"Ġcontempor":13615,"ĠReserve":13616,"unta":13617,"Ġcontrolling":13618,"ĠAttale":13619,"Ġfocusing":13620,"Ġpursued":13621,"ĠHumpty":13622,"Ġadvantages":13623,"ĠHistorical":13624,"ĠLockport":13625,"ĠJosh":13626,"ĠColonies":13627,"ĠDamage":13628,"ĠNazaire":13629,"Ġmelod":13630,"ĠFerry":13631,"ĠAnnals":13632,"Ġathletics":13633,"ĠProtection":13634,"ĠKirby":13635,"ĠEngineers":13636,"Ġincorporates":13637,"Ġfunctional":13638,"Ġremixes":13639,"Ġlabeled":13640,"Ġwitnessed":13641,"Ġeasier":13642,"ĠSusan":13643,"Ġsubstantially":13644,"ĠCuba":13645,"Ġproposals":13646,"ĠGabbar":13647,"Ġferry":13648,"Ġshelter":13649,"Ġlobster":13650,"Ġaltarpiece":13651,"Ġbeside":13652,"Ġbesie":13653,"ĠKatia":13654,"ĠGanganelli":13655,"Ġskeleton":13656,"Ġanthrop":13657,"Ġrumors":13658,"Ġenforcement":13659,"ĠStrapping":13660,"Ġoverwhelmed":13661,"Ġtackles":13662,"ĠBuddhist":13663,"Ġpersuaded":13664,"Ġimprisoned":13665,"ĠPAVN":13666,"ĠTaiwan":13667,"Ġgammar":13668,"Ġfatalities":13669,"Ġhence":13670,"Ġefficient":13671,"ĠBehind":13672,"Ġsummary":13673,"Ġanticipated":13674,"Ġastronomers":13675,"ĠDrama":13676,"ĠDiamond":13677,"Ġveteran":13678,"Ġseventeen":13679,"Ġtrunkline":13680,"ĠHeyman":13681,"Ġsemifinals":13682,"ĠRepresentatives":13683,"Ġcelebration":13684,"Ġboilers":13685,"ĠCoalition":13686,"Ġenlarged":13687,"Ġscenario":13688,"ĠBracknell":13689,"ĠÂµm":13690,"ĠWrestle":13691,"ĠLunga":13692,"ĠRajamouli":13693,"ĠExpedition":13694,"ĠMcElroy":13695,"ĠMhalsa":13696,"ĠÃįmar":13697,"Ġhygrometricus":13698,"ĠESPN":13699,"ĠManhattan":13700,"ĠParanthodon":13701,"Mania":13702,"core":13703,"care":13704,"fus":13705,"iÃ¨":13706,"jib":13707,"lon":13708,"lot":13709,"lance":13710,"nance":13711,"pike":13712,"uber":13713,"xi":13714,"Ã«":13715,"Ã´":13716,"Äĥ":13717,"ĠËĪ":13718,"Ġties":13719,"Ġthesis":13720,"erdale":13721,"Ġsor":13722,"Ġsinking":13723,"Ġol":13724,"Ġcel":13725,"Ġcra":13726,"Ġcub":13727,"Ġcement":13728,"Ġcakes":13729,"Ġcooking":13730,"Ġfisher":13731,"Ġmaps":13732,"Ġdad":13733,"ĠAx":13734,"ĠAren":13735,"ĠAOC":13736,"ĠSri":13737,"ĠSEC":13738,"ĠSNL":13739,"ĠCadmium":13740,"Ġlod":13741,"amas":13742,"Ġecl":13743,"Ġnice":13744,"aco":13745,"acrit":13746,"ĠMets":13747,"uru":13748,"ĠBreak":13749,"ĠIl":13750,"ĠITV":13751,"Ġgains":13752,"usade":13753,"Ġstance":13754,"ĠPiz":13755,"ĠPrice":13756,"Ġheter":13757,"ĠRal":13758,"ĠROK":13759,"ĠDÃŃ":13760,"ĠDawn":13761,"ĠFastra":13762,"ĠFringe":13763,"ulsion":13764,"ulator":13765,"Ġconclus":13766,"ĠNAS":13767,"ĠNEA":13768,"ĠWave":13769,"ĠWoman":13770,"ĠGet":13771,"ĠGrey":13772,"ĠGothic":13773,"agh":13774,"riz":13775,"ĠEch":13776,"ĠOke":13777,"opol":13778,"Ġprobe":13779,"ĠKod":13780,"Ġchann":13781,"Ġchances":13782,"Ġshopping":13783,"ovil":13784,"ovac":13785,"apter":13786,"Ġabst":13787,"Ġherb":13788,"Ġrecalls":13789,"izong":13790,"Ġdisorder":13791,"Ġdischar":13792,"Ġjealous":13793,"ensional":13794,"ĠYu":13795,"renton":13796,"ĠUnit":13797,"lesey":13798,"othy":13799,"ĠArcher":13800,"Ġtraces":13801,"Ġflaw":13802,"Ġflatt":13803,"obee":13804,"Ġfilmm":13805,"ĠNewark":13806,"Ġassign":13807,"Ġregister":13808,"Ġformations":13809,"Ġacclaimed":13810,"Ġcoaster":13811,"Ġamazing":13812,"ĠLein":13813,"insky":13814,"Ġ126":13815,"Ġinvented":13816,"Ġblame":13817,"Ġblind":13818,"Ġblank":13819,"Ġblamed":13820,"ĠZA":13821,"Ġtransits":13822,"Ġ119":13823,"Ġcontinent":13824,"Ġdeveloper":13825,"ĠSpirit":13826,"Ġpreval":13827,"ĠNorthwest":13828,"ĠNorthumberland":13829,"Ġelephant":13830,"Ġpointing":13831,"ĠJanet":13832,"Ġgrace":13833,"ĠGuang":13834,"ĠGuerr":13835,"Ġslip":13836,"Ġkiller":13837,"echobee":13838,"Ġorganisations":13839,"ĠAndr":13840,"Ġsentenced":13841,"Ġboom":13842,"ĠSteven":13843,"Ġmidnight":13844,"Ġdelays":13845,"ĠAborig":13846,"Ġcurren":13847,"Ġpolitically":13848,"Ġpostp":13849,"ĠAfghan":13850,"Ġvictorious":13851,"Ġfreed":13852,"ĠAngl":13853,"ĠAnglesey":13854,"Ġprofound":13855,"Ġsurvives":13856,"Ġterrible":13857,"Ġlighting":13858,"Ġlesser":13859,"Ġjoins":13860,"Ġobser":13861,"Ġfarming":13862,"ĠDavies":13863,"Ġbarb":13864,"Ġbarometric":13865,"Ġcataly":13866,"Ġtourism":13867,"Ġintroduces":13868,"ĠExecutive":13869,"ĠOliver":13870,"ĠMonten":13871,"ĠPalm":13872,"Ġmixing":13873,"Ġtreasure":13874,"Ġimproving":13875,"Ġfortified":13876,"Ġarguments":13877,"ĠMedieval":13878,"ĠPeace":13879,"Ġcostumes":13880,"Ġreactor":13881,"Ġpractical":13882,"Ġclearing":13883,"Ġthreatening":13884,"ĠMaryang":13885,"ĠÃħ":13886,"oult":13887,"Ġbills":13888,"Ġharbor":13889,"Ġ1837":13890,"Ġapplications":13891,"ĠBuen":13892,"ĠBeyond":13893,"ĠSoviets":13894,"Ġpeaceful":13895,"Ġgrandson":13896,"ĠEss":13897,"ĠArmoured":13898,"ĠArmstrong":13899,"Ġdemonstration":13900,"Ġaggress":13901,"Ġpreparations":13902,"Ġlegislative":13903,"ĠReviewers":13904,"ĠLarge":13905,"ĠLlosa":13906,"ĠUNES":13907,"Ġcomprises":13908,"Ġoverlooking":13909,"Ġfungi":13910,"boat":13911,"ĠAdmiralty":13912,"Ġunusually":13913,"Ġdimensional":13914,"Ġpulp":13915,"ĠBruins":13916,"ĠLiberty":13917,"ĠAthletics":13918,"Ġcooler":13919,"Ġcrafts":13920,"Ġprosper":13921,"Ġmigration":13922,"ĠWinston":13923,"Ġmemorials":13924,"ĠYeovil":13925,"Ġmutual":13926,"Ġshelters":13927,"ĠBiography":13928,"ĠSpringfield":13929,"Ġdinosaurs":13930,"Ġinstrumental":13931,"Ġgrossing":13932,"ĠHunter":13933,"ĠStewie":13934,"ĠPersonnel":13935,"Ġhanging":13936,"Ġallegations":13937,"ĠJennifer":13938,"ĠPicture":13939,"Ġloyalty":13940,"ĠSaigon":13941,"isphere":13942,"Ġdisappointed":13943,"Ġframework":13944,"Ġjournalists":13945,"ĠCobra":13946,"Ġnicknamed":13947,"Ġinnovative":13948,"Ġoutput":13949,"Ġprospect":13950,"Ġabundant":13951,"ĠPierre":13952,"Ġerrors":13953,"ĠMcLaren":13954,"Ġelderly":13955,"ĠJenkins":13956,"Ġaggregate":13957,"ĠPanzer":13958,"Ġlivestock":13959,"ĠWolver":13960,"Ġintelligent":13961,"Ġsanctuary":13962,"ĠFriedrich":13963,"ĠCommercial":13964,"Ġcameras":13965,"ĠFitts":13966,"ĠLauderdale":13967,"ĠAlgernon":13968,"tymology":13969,"Ġfarther":13970,"Ġalphabet":13971,"ĠRafael":13972,"Ġbronze":13973,"ĠEzra":13974,"Ġpercussion":13975,"ĠConstantinople":13976,"Ġrepertoire":13977,"ĠTeotihuacan":13978,"Ġgammarus":13979,"ĠWrestleMania":13980,"ĠDÃŃaz":13981,"ĠOkeechobee":13982,"ĠUNESCO":13983,"SU":13984,"bits":13985,"fa":13986,"feld":13987,"iating":13988,"mi":13989,"mad":13990,"mill":13991,"oi":13992,"put":13993,"uania":13994,"Ãł":13995,"Ġç":13996,"Ġts":13997,"Ġtong":13998,"Ġtensions":13999,"held":14000,"inqu":14001,"rection":14002,"Ġsou":14003,"Ġsid":14004,"Ġsaving":14005,"Ġware":14006,"iture":14007,"itating":14008,"Ġcage":14009,"Ġfing":14010,"Ġfet":14011,"Ġfighters":14012,"armed":14013,"aning":14014,"Ġpover":14015,"Ġpuma":14016,"roc":14017,"icy":14018,"icing":14019,"Ġmound":14020,"Ġmold":14021,"Ġdining":14022,"Ġdrought":14023,"Ġhurd":14024,"ĠTrou":14025,"ĠTyp":14026,"Ġrevenge":14027,"ĠAway":14028,"Ġthread":14029,"stappen":14030,"ĠCH":14031,"ĠCost":14032,"ĠCert":14033,"ĠChemical":14034,"Ġloses":14035,"Ġlighter":14036,"Ġlabyrinth":14037,"Ġnaturally":14038,"adir":14039,"adows":14040,
[...]
